{"\uc774\ubc14": 30403, "##\ubc14\uc2a4": 30669, "##\ub9c8\ub978": 20104, "\ud0dc\ud48d": 8664, "\ub9c8\ub4dc\ub9ac\ub4dc": 14388, "\ud2b9\uc774": 8329, "do": 21287, "##\ub514": 2220, "Ind": 16534, "\uc911\uc800\uac00": 23950, "\uac10\uc815\uac00": 27074, "\ud30c\uc804": 19819, "\uc21c\ubc29": 15635, "\ubca0\ud478": 21838, "##\ub9ac": 2059, "\ubbf8\uc6cc": 20921, "\uac04\uc218": 26016, "\ud758\ub800": 11091, "\uc804\uae30": 4450, "\uc18c\uc561": 10977, "\ub2e4\uc9dc\uace0\uc9dc": 28435, "\uc138\uc158": 15678, "\ub86f\ub370\ucf00\ubbf8\uce7c": 28404, "\uc2a4\ub9c8": 18419, "\uc27d": 1311, "\uac74\ubb3c": 4515, "##\uc2e4": 2477, "\uc7ac\uc77c": 15854, "##arm": 24298, "\uc1a1\uce58": 19352, "\uad6c\ubd88": 29068, "\ub367\ubd99\uc774": 21571, "\ub300\ud589\uc0ac": 20939, "\ubc30\uc601": 29184, "\uc5b4\ub9b0\uc774\uc9d1": 8090, "##\ub85c\ub9ac": 9557, "\ucd94\ud6c4": 13397, "\ubc29\uc1a1\ubc95": 19817, "\uc0b4\ub871": 21497, "\ubb34\ubc29": 14594, "\uc774\uc2b9\uc5fd": 13033, "\uc704\ub840": 15629, "\uc758\ub840": 15309, "\uad50\uacfc\ubaa9": 23617, "##\ud0c0": 2256, "##al": 4065, "\uc57c\uc720": 22489, "\uc21c\uc21c\ud788": 21219, "\uc6a9\ud574": 28516, "\uc548\ud568": 25585, "\uac1d": 559, "Rich": 25463, "##cht": 31077, "\uc154\ud130": 22865, "##\uc0c0": 3575, "\uc81c\uc2dc": 4277, "Mod": 22325, "\uadc0\uc21c": 25460, "\uc544\uc6a9": 30179, "\uc81c\ub124\uc2dc\uc2a4": 17283, "##\ud488": 2425, "\uc758\uc874": 6075, "\uad6d\uc5b4": 7062, "\uad6c\ub2e8\uc8fc": 27265, "\uc804\ub9dd": 4016, "##\uc0ac\uc2ac": 30008, "\uace0\uce35": 18093, "\uae40\uce58\ub0c9\uc7a5\uace0": 28450, "\ucd5c\ud615\uc6b0": 21342, "[unused97]": 31597, "\ud558\ub3d9\uad70": 28865, "\ub808\ud06c\ub9ac\uc5d0\uc774\uc158": 29240, "\u76f8": 446, "\uc544\ub9c8\ub3c4": 6871, "[unused336]": 31836, "\uc9c0\ub3c5": 13514, "\ubbf8\ucce4": 8760, "\uac15\ub0a8\uc2a4\ud0c0\uc77c": 28731, "\uc120\ud48d\uae30": 18516, "\uc2dc\uc0c1": 7789, "\uc131\ud615\uc678\uacfc": 17700, "\ud53c\ud574\uc57c": 18002, "[unused400]": 31900, "\uad00\uacc4\uc5c6\uc774": 10902, "\uc601\ud63c": 6569, "\uc560\uc4f4": 27356, "\ud38c": 1848, "##MP": 25576, "##\ubc0b": 2997, "\ub2f5\ub2f5": 7543, "OO": 27326, "\uba85\ud0dc": 22828, "##\ub808": 2189, "\ubc14\ub78c\uc9c1": 6501, "##\uca0c": 3586, "\ub300\uc548": 5605, "\ubc84\ub824\ub77c": 30385, "\uc544\uc9c1": 3919, "\ud63c\ub0b4": 28253, "##\uc0ac\uc2a4": 11538, "\uc139": 1270, "\uc758\uacb0\uad8c": 17340, "\uc601\uc0c1": 4729, "##\ub4ed\ub2c8\ub2e4": 21785, "\ubd88\ub7ec\ub4e4\uc5ec": 30742, "\ubb34\uc0ac": 7260, "\uc911\uace0\ucc28": 13780, "\uc2e0\ucd98": 23240, "\uc2e0\uc911\ud788": 22685, "##\uc5e3": 3464, "##\u043d": 2452, "\ucf58\ud37c\ub7f0\uc2a4": 17339, "\ud5c8\ube0c": 9022, "\ub7ac": 959, "\uc774\uba74": 12289, "\ud1b5\ud574": 3644, "\uad6c\uc5ed": 5480, "\uc678\ub534": 25775, "##ang": 9617, "\uc544\ud30c\ud2b8": 4155, "\uc608\uc220\uc81c": 31084, "\uace0\uc758": 11242, "\ud3ed\uce68": 28659, "\uc81c\ud615": 22170, "\ube14\ub799\ub9ac\uc2a4\ud2b8": 16802, "\ub179": 767, "\ud638\ud504": 16773, "\ubd88\ub9cc": 5793, "\ub17c\uc7c1": 6851, "\ub3c5\ucc28\uc9c0": 27187, "\uac00\uc810": 23389, "\ucd94\ub9ac": 12872, "\ucc99\uc218": 30558, "\uc808\uacbd": 24526, "\ud638\ubc18": 19803, "4600": 30893, "##\uc77c\ube44": 22690, "\uc778\ub371\uc2a4": 18661, "\uc218\uc800": 18664, "\uc9c0\ub0b8": 8490, "\ub370\uc77c\ub9ac": 7660, "\ub85c\uc2a4": 8138, "\uc904\uc600": 12800, "\uc870\uc120\ub300": 22693, "##\uc784\uc218": 20828, "\uc870\ub9cc": 8161, "\uac94": 580, "\ub9e5\uc2ec": 31180, "\uadf8\ub9cc": 4416, "##tion": 4596, "\uc624\uc138": 12450, "\uc0c1\ucd94": 17615, "\ubd80\uc870": 19677, "\uae4c\ub9c8": 14757, "##conom": 17412, "\ubb34\ub354": 9007, "\ub79c\ub364": 31188, "\uadf8\ub974": 16283, "\ub098\ud0c0\ub0ac\uc73c\uba70": 29194, "1000": 4951, "\uad6d\uacf5\ub9bd": 19387, "\uc131\ub09c": 22890, "\uc624\ub86f": 22866, "pp": 8123, "\ucf54\uce58": 7102, "tvN": 13796, "\u25cf\u25cf": 29369, "\uc678\ub798": 13832, "\ubd80\ub978": 11090, "\ucacc": 1616, "II": 14238, "\uccbc": 1660, "\ub9c8\ub3c8\ub098": 29557, "\ucd94\ucd9c": 8736, "\ucfe0\ub974": 30617, "\uc18d\uc138": 31385, "26": 4210, "\ub9c8\uce58": 4372, "\uac1c\uc778": 3907, "\uadf9\uc18c": 19246, "\ud798\ub4dc": 18941, "##\ub9e5\uc0c1\ud1b5": 30190, "CS": 12035, "\ud1b5\ud3d0\ud569": 17530, "\ucf58": 1728, "\ub354\ub77c\uba74": 10136, "\ub9cc\uc11d": 24577, "\uadfc\uac70": 4952, "\ub4c0\uc5bc": 18100, "[unused134]": 31634, "car": 28038, "\ud5cc\ud130": 29613, "\uc0dd\ub3d9": 17364, "\ubc18\uc2e0": 22815, "\ud5c8\ub77d": 7852, "\ub5bb": 915, "[unused478]": 31978, "\ub2e8\ub2e8\ud788": 13701, "\ubbf8\ub8f0": 25763, "\uc22d": 1302, "[unused447]": 31947, "\uc804\uc77c": 12123, "\ub4e4\uc5b4\uc640": 7107, "\uace0\uc870\uc120": 23452, "GP": 26574, "BIS": 26538, "\ud750\ub97c": 20136, "\uc815\uc870": 10317, "\uc55e": 1388, "\ud658\ud558": 13952, "\uad50\ub3c4\uc18c": 12381, "\ud754\ud788": 6217, "\uac08\ub9b4": 17538, "\u6d77": 418, "\u4eba": 229, "\ub044": 703, "\uc9c1\uac04\uc811": 24919, "\uae30\uc655": 19896, "\uc57d\ud0c8": 15599, "\uc9c4\uc704": 17882, "\ub2e4\uac01\ub3c4": 25710, "\ubd80\uac80": 19135, "\uba85\uc5b8": 27525, "##\u00b2": 2818, "\ud0dc": 1770, "\uc218\uc911": 13165, "[unused14]": 31514, "\uc12d\uc678": 16984, "\uaed8\uc120": 25332, "##\ubbf8\uc0ac": 28053, "##\ubd81\uc790": 12015, "\uc720\ud765\uc5c5\uc18c": 29420, "\ube45\ud1a0": 14708, "\uacb0\uc131": 9298, "\ucc98\ucc38": 19296, "\uc655": 1459, "[unused107]": 31607, "\uae30\ub2e4\ub9b4": 14826, "\uc8fc\ucc3d": 18875, "\ubbf8\ub2c8": 6934, "\ub3c4\ubd09": 19678, "\ubaac\uc2a4\ud130": 13692, "\ubaa8\uc740\ub2e4": 15458, "\uc801\uc154": 30848, "\uae00\uc4f4\uc774": 30684, "\ud55c\ub0a8\ub3d9": 26174, "\uc758\ubbf8\uc2ec\uc7a5": 22142, "\uc2dd\uc218": 17685, "\ucd9c\ud558": 12544, "\ub300\ub4f1": 19205, "\uace0\ubb38": 6689, "\uc124\uc815": 5247, "\ub85c\uc368": 6432, "FR": 20971, "\uc2e0\ud765": 10475, "\ub3c4\ubc15": 8902, "\ub3d9\uc9c8": 17589, "\ubbf8\uc6cc\ud558": 18322, "\ud45c\ucc3d": 11892, "##\ud558\ub8e8": 11949, "##\uac84": 2748, "\ucd08\ub144": 24239, "\u318d\uc720": 21327, "\ud310\ub9e4\uc810": 21582, "\ubc1c\ubc1c": 16368, "\ube4c": 1190, "\ucda9\uc2e4\ud788": 13996, "\ud669\ub2f9": 10729, "\uc751\uc2dc\uc790": 23518, "\ub9ac\uc988": 23136, "\ud30c\uc8fc\uc2dc": 18784, "\ub3d9\uc790": 17610, "\ud63c\ud569\ud615": 29633, "\ucc3d": 1641, "\uc0bc\ud0a4": 17314, "\uc9c0\ubc18": 21924, "\uac81\ub2c8\uae4c": 10541, "##\uc9c4\ub85c": 22256, "\uba4d\ud558\ub2c8": 16911, "\ubb34\uac8c": 6548, "Technology": 29960, "\uc815\uc885": 18360, "\uac08\uc99d": 16791, "\ub5a4": 911, "\ud558\ubb3c": 21047, "\ub180\ub824": 29839, "\ub0b4\ubc00": 8071, "##\uc988\uc74c": 14438, "\ud2b8\ub9ac\uc624": 25649, "WTI": 25436, "##\uc5ec\ub300": 13826, "##\ud30c": 2160, "\ub2e4\ub984\uc5c6": 10031, "\uc5bc\ub8e9\uc9c4": 29851, "\uc6d0\ud55c\ub2e4": 10844, "\uc2dd\uc2a4": 22335, "un": 15818, "\uac1c\uc778\uae30": 29796, "AA": 28458, "##\uaca0\ub2e4": 18395, "\uc544\ube0c\ub77c\ud568": 22296, "\ud734\uc804\uc120": 31099, "\uc544\ud0a4": 15244, "[unused94]": 31594, "\uc758\uc0ac": 4206, "\uc544\ub85c\ub9c8": 24117, "\ud638\uc801": 21407, "80": 4684, "\uc774\ub530": 11175, "\ub098\ud0c0\ub0b4": 6269, "\ud65c\uc57d": 5943, "\uc2dc\uac04": 3641, "et": 16971, "\uc815\ub3d9": 11109, "\uc815\uc911\ud788": 31411, "2023": 30226, "\uc6c0\ucc14": 24473, "##18": 22400, "\ud45c\uc815": 4879, "\uacb0\uc804": 27757, "##ald": 22524, "##\ud018": 3021, "\uc8fc\uba39\ubc25": 24674, "\uc5d0\uc6cc": 20187, "\uadf8": 636, "\ud310\ubb38": 13451, "\uc9c4\uaca9": 19484, "\ucce4": 1662, "##\ube44\uc5b4": 23821, "\uc120\uad50": 7675, "\uc190\uc775": 13735, "\uace0\ub9bd": 11072, "\uc790\uc0dd": 13452, "\uc989\uac01": 7395, "\uac74\ucd95\uc0ac": 28147, "\uacfc": 604, "\u82f1": 478, "##\ud611\ud68c": 11261, "\uc544\uaf08": 23750, "##\uc7ad": 3507, "\uc774\uba54": 9615, "\ubb38\ud56d": 11614, "\ub85c": 991, "\uc870\uc728": 9807, "\ud2b8\ub80c\ub4dc": 7454, "\uc0cc\ud504\ub780\uc2dc\uc2a4\ucf54": 13898, "\ub0b8\uc2dc": 30811, "980": 29846, "##\uc2dc\ucf54": 7781, "\ubc97\uaca8": 11913, "##\ud0c0\uc778\ub370\uc774": 28109, "##\uc5b4\ub85c": 12529, "\ubfd4\ubfd4\uc774": 30964, "\ub2ec\ub77c\uc9c8": 11602, "\uc5f0\ub77d": 5721, "\ub098\uc654\uc5c8": 28949, "\ud3ed\uaca9": 14341, "\uae30\uc5fc": 30020, "\ub300\ud560": 22109, "\uc5b4\ub2e4": 19432, "\uc815\uacc4": 13596, "\ub9c8\ucc2c\uac00\uc9c0": 4600, "\uad6c\uccb4": 4468, "\uac74\ub124": 8916, "[unused24]": 31524, "\uc77c\ub7ec\uc2a4\ud2b8": 22368, "\ucc98\uc6b0": 15687, "\ub4a4\uc11e\uc5ec": 25023, "\ucc2c\ubbf8": 26477, "\uae30\uc6d0": 6256, "PM": 15064, "\uc785\uc9c0": 6772, "\uc5ec\uc778": 5981, "\ub2e5\uce58": 15251, "\ub451": 865, "##\uc635": 2796, "\ub3cc\ub824\ubcf4\ub0c8": 29916, "\uc544\uc778": 13180, "\uc774\uc0c1\ub4dd": 26535, "\uc8fc\uc138": 27616, "##\uba55": 2713, "\uad00\uc11c": 28024, "[unused290]": 31790, "\uc695\uc2e4": 14470, "##\uc81c\ub2f9": 16640, "\ubc14\uac8c\ud2b8": 27618, "\uc7ac\ub2e8": 5045, "\ub839": 989, "\uc18d\ud55c": 10923, "\uae4c\uce60": 27044, "\ub09c\ud574": 24098, "\uce7c\ub7fc\ub2c8\uc2a4\ud2b8": 27876, "\ub300\ub9ac\uc11d": 21252, "\uc218\ud559": 5193, "\ud615\ubc95": 15229, "\ud6c4\ud559": 30676, "\uc53b\uaca8": 30881, "\uade0\uc77c": 23306, "##\uc758\uc6d0": 5069, "8500": 24351, "\uc0b0\uc801": 18666, "##\ub35c\ubbf8": 22044, "\uc6c0\uce20": 17750, "\ubc29\ubc30": 28030, "=": 33, "\ucd2c": 1669, "##\ub6f4": 3390, "\uae30\ub3c5": 5640, "\ubbf8\uc2dd": 19092, "\uac04\ub7b5": 16522, "\ub9c9\ub0b4": 9870, "\ubaa9\uc7ac": 13879, "\uac16\uc740": 26801, "BC": 14256, "105": 11837, "\uc721\uc218": 13999, "\ub9c9\ub9d0": 14815, "\ub099\ucc30": 9259, "\ubba4\uc9c0\uc158": 14821, "\uacf5\uac1c": 4049, "\uc1a1\ud30c\uad6c": 14120, "\uadf8\ub188": 13055, "\ubc9a": 1147, "\uc7ac\uc9c1": 9472, "\uc0dd\uba85\uccb4": 12323, "\uc0c1\uad00\uc5c6": 10712, "\uafb9": 690, "[unused3]": 31503, "\ub9ac\uce20": 18126, "\ub300\uce58": 9603, "\uc774\ubc18": 29283, "\ub2e5\ud130": 11380, "\uc7ac\uacb0": 24762, "\uc624\uc2f9": 29196, "\uc218\uc220\ube44": 31123, "\ud658\uacbd": 3828, "\ud574\uc545": 31299, "\ub4a4\ub530\ub790": 30227, "\uc5c9\ub369\uc774": 10194, "\uac16\ucdb0": 7492, "\ud3ec\ucc9c\uc2dc": 28440, "\uc57d\ud558": 10624, "\ud1f4\ube44": 29177, "\uc218\ud589": 4636, "##\ub480": 3551, "\ub69d\ubc30\uae30": 29165, "288": 29653, "\uac70\ud3ec": 31105, "\ubc30\uc591": 15008, "\uacb0\uc120": 13848, "\ub2e4\ubb38\ud654": 15692, "\uc5b4\ub51c": 15901, "\uc778\ud130\ub0b4\uc154\ub110": 13827, "\uc138\uc6b4": 7407, "\uacb0\uc815": 3794, "\uc9c1\ubb34": 6729, "\ub9dd\uc5f0": 31199, "\uc370": 1348, "##ye": 25501, "\uc2dc\uc560": 19603, "\ubcf4\ub530\ub9ac": 18084, "\ud06c\ub9ac": 10869, "\uc655\uc2e4": 11730, "\uc131\ub9e4\ub9e4": 12070, "\uc6b0\ub3c4": 25765, "670": 30124, "\ud2b9\uc720": 7459, "\ud76c": 1967, "\uc804\ub77d": 9364, "##\ub057": 2845, "\ucc9c\uc7a5": 9988, "\uc720\uad8c\uc790": 7243, "##\uc785": 2372, "\uc8fc\uc131": 21449, "\uc0ac\ud615": 9385, "\uc2dd\ubcc4": 16448, "\ub9b0\ub4dc": 30626, "\uc0b0\uae30": 30623, "\uc138\ub825": 4815, "##\ub834\uce58": 29721, "##\ube7c": 3161, "\ucd08\uc5f0": 16087, "\uc704\ub4dc": 22578, "\uce5c\ubc00": 13809, "\ud0c0\uc6b4": 8211, "##\ud0a4\uc2a4": 16052, "\uc5f0\uac70\ud478": 27273, "\ub300\uc678": 7627, "##\uc6b4\ub2e4": 10591, "##\ucf04": 3303, "\ud65c\ubc1c": 6062, "##\ucf54\uc778": 20072, "\ud0dd": 1771, "HSBC": 31015, "234": 28643, "\uc120\ud314": 12925, "##\ube0c\ub9ac\uc9c0": 27837, "\uac00\ub2e5": 14307, "\uae40\uc131": 6576, "\uac78\ub7ec": 17023, "\ube44\ud589\uae30": 7046, "##\ucfe1": 3240, "\ub9ac\uc544": 14357, "\uacbd\uc9c4": 18425, "\ubcf4\uc77c\ub7ec": 15936, "\ub9ac\ubcf8": 16436, "\uc2dc\ucc28": 19168, "\ub179\ub85d": 22114, "\ub290\uaef4\uc84c": 9306, "\ud1a0\ud2b8\ub118": 20482, "\uae40\ub0a8": 14308, "\ub123": 751, "CGV": 16995, "\uac1c\ubd09": 6837, "\uac00\ud558": 9144, "\ud558\uace0": 6159, "and": 5433, "\uc6d0\ub144": 16817, "\uc559\ub4dc\ub808": 28366, "\uc218\ud37c": 15025, "\uc131\ub9ac\ud559": 17444, "##\uc774\uc9c0": 4609, "\ud53c\ubcf4\ud5d8": 22244, "\ubc31\uc791": 12777, "\uc0b0\uc5c5\uc740\ud589": 12218, "##\ud1b5\ub839": 3695, "\uc77c\uc784": 21882, "\uc774\uc11c": 25546, "\ubc30\uc6b8": 9402, "\ub9e1\uae38": 17461, "\uae40\ud64d": 15623, "\uc131\uc9c0": 14402, "\ubc14\uc774\uc5b4": 11922, "##oll": 9631, "KT": 5108, "\uc5b4\ub824\uc6b8": 7426, "\uc124\ub4dd\ub825": 11097, "##\ub5a8": 3016, "\uc74c\uc2dd\ubb3c": 10915, "\uc7a5\ubc14\uad6c\ub2c8": 29869, "\ud658": 1935, "\uad49": 613, "\uad6c\ud588": 15461, "\uc801\ud78c": 12903, "Comm": 23368, "\ub2ec\uac40": 11829, "\ud150\ud2b8": 12482, "[unused36]": 31536, "\ubd80\uc124": 18384, "\uc18c\uc124\uac00": 10173, "\uadf8\ub7ec\uba74\uc740": 15298, "\uc5ec\uc0ac": 8294, "\ubab0": 1082, "\uc9c0\ub300": 6732, "##\ub274\uc5bc": 13108, "\ud06c\ub86c": 22658, "\uc804\uadfc": 23867, "GO": 22349, "\uac15\ucca0": 16026, "\uae30\ucc28": 8268, "\uaf49": 685, "##\uc5c9": 2187, "\ub2e8\ud638": 9011, "can": 24687, "\uc0b0\uc18d": 23996, "\ub2e4\ub2cc": 11238, "\ud604\uc218\ub9c9": 13426, "##\uc678\uacfc": 12267, "\ubabb\ud55c\ub2e4\uace0": 22162, "\ud0d0\uc9c0": 17775, "\uc18c\uc911\ud788": 18371, "\uc870\uc0c1": 8900, "\uc5b8\ud589": 17713, "##\uc785\ub2c8\ub2e4": 12190, "\uc724\uc0c1\ud604": 25456, "\ub9c8\ub974\ud06c\uc2a4": 9704, "\uc608\uc2dc": 18369, "\uc81c\uc778": 16750, "\uc548\ubcf4\ub9ac": 13773, "##\uadf8\ub9ac": 12021, "##\u043e": 2464, "\ub450\ub824\uc6e0": 23121, "MV": 12459, "\ud798\uc785": 8485, "\uc2ed\uc0c1": 17836, "\uc2dc\uad6c": 21324, "##\ub0b4\uc154\ub110": 13814, "\uae30\ud3ed": 28460, "\uac70\uba38\uc950": 18905, "\uc9c4\ub8cc": 6517, "\u5bae": 321, "\ud30c\uc778": 12098, "\ub118\uae34": 12478, "\ubcd1\uc6d0": 4054, "\uc120\uac70\ubc95": 10146, "\ucc38\uc73c\ub85c": 7654, "##\ubc14\uc77c": 5210, "\uc7a1\uc544\ub2f9": 17154, "\uace8\ud504": 4824, "\uc9c0\uce6d": 11770, "\ud68d\uae30": 9879, "\uc815\ud655": 4480, "\uc5b4\uce58": 11108, "\ube14\ub7ec": 26340, "\ube68\ub300": 26772, "\ucd1d\uc561": 10888, "\ud504\ub77c\uc790": 22374, "\uc73c\uc2ed\ub2c8\uae4c": 28344, "\ubcf4\uc874": 6628, "\uc2a4\ud3ec\ud2b8\ub77c\uc774\ud2b8": 27731, "\ub354\ub7ec": 8841, "\ud004": 1744, "\ub454\uac11": 22100, "\uac10\uac00\uc0c1\uac01": 26830, "\uc6b0\uac70\uc9c4": 29173, "##\ubd80\uc808": 26972, "\uc544\ud1a0": 13012, "\ub3c5\uc131": 14899, "\uc6b4\ud589": 6547, "\ud638\uba85": 27105, "\uc2dc\uccad": 4479, "##\ud2f0\ub098\ubb34": 25943, "\ub458": 867, "\ucd08\uc804": 31200, "\ucc98\uc9c4": 30727, "\ud14c\ub7ec\ub9ac\uc2a4\ud2b8": 23108, "\uace8\ub2e4": 23560, "\uc81c\ub3c4": 4010, "\ud604\uae08": 5797, "\ud544\ub450": 19004, "\uc77c\ubc29": 6858, "\ubc14\ub77c\ubd24": 23951, "\uc911\ubd80": 9775, "\uc548\uc804\uc131": 18309, "\uc804\uc138\uae08": 14299, "\uc591\uad81": 16569, "\uc2b9\ubd80\uc218": 19522, "\uc608\uc218": 5558, "\uce68\uad6c": 19782, "##\u339e": 3565, "You": 20545, "##\ube64": 3427, "[unused1]": 31501, "\ub0b4\uc800": 30894, "206": 21732, "\uc601\uc6d4": 17376, "\ubca0\ud480": 12523, "\uacb0\ud63c\uc2dd": 8556, "CCTV": 10030, "\uae30\uacf5": 17847, "\uc6d4\uc131": 19539, "\uc528\ub984": 14441, "\uae40\ud765": 28989, "\ucc98\ubd84": 5692, "\uc120\ud68c": 19933, "\uaddc": 633, "\ud3ec\uba54\ub77c\ub2c8\uc548": 26054, "\uac00\ub78c": 22149, "\ub04c\uc5b4\uc548": 13490, "\uc77c\uc790\ub9ac": 4649, "##\ubc14\ub9ac": 20427, "\uc74c\uc545\uc81c": 30101, "\ud788\uc2a4\ud14c": 26330, "\ubbf8\ub4dc\ud544\ub354": 13806, "\uc6a9\ubcd1": 11681, "\ub2e4\uc774\uc5bc": 26593, "\uad50\ub2e8": 14612, "\uac70\uc2a4": 15037, "\uc774\uac70": 4647, "\uc591\ub3d9\uadfc": 30189, "\ud1b5\uc601": 10427, "##10": 11610, "\ubc84\ub9bc": 15061, "\uc2dc\ub098\ub9ac\uc624": 8684, "\ubc00\uc811": 9433, "\uac70\uc810": 8386, "\uc5b8\uc57d": 28011, "\uc608\ubbfc": 11028, "\ub3d9\uc6d0": 5627, "\ucd08\uc720": 18775, "\uc774\ud56d": 27164, "##az": 19316, "\ub798\ub9ac": 29733, "##\ud614": 2561, "u": 88, "\ud604\uba85": 9283, "\uacbd\uc7a5": 28137, "\uc6cc\uce58": 14744, "\uc740\uc5b4": 26458, "\ud30c\uaca9": 9798, "\ube44\ub8cc": 15118, "\uc2e0\uc0dd": 10035, "##\uc804\uae30": 16074, "\ud479": 1870, "\uc2dc\ucee4\uba3c": 27268, "\ub0a8\uae34": 8708, "\ubb3c\uc758": 18003, "\uc548\uc4f0": 19816, "\ub3c4\ub85c": 4475, "\ud55c\uc2b9": 22998, "\uc54c\ub9ac": 5234, "\uc0ac\uc774\uba3c": 28074, "\uc0ac\uadc0": 11679, "\ud578": 1899, "\ucd1b": 1667, "\ub0a8\uc591\uc8fc": 11272, "\uc778\ud134": 9049, "\ucf54": 1726, "\ube44\ud2b8\ucf54\uc778": 20281, "##\uc123": 3584, "\ud0a4\uc6c0": 20593, "\ud558\uc5ec": 6439, "\uc9c0\ud45c": 6459, "\ubaa8\ub140": 18920, "\ud718\ub458\ub7ec": 23186, "1912": 26033, "\ubab0\uc544\uc8fc": 18412, "\uae40\ubd80\uacb8": 22546, "\uc704\ud0dc": 13894, "\ubbfc\uc2ec": 8159, "\ud569": 1894, "\uc80a": 1539, "\uc655\uc138\uc790": 22001, "\uc2a4\uc644\uc9c0": 31312, "\uc7a1\uc544\ub2f9\uae30": 28251, "\ubca0\uc774\uc9c1": 27435, "\ub9e4\uc6b0": 4230, "\uc2dd\uacac": 25996, "\uc54c\uace0\ub9ac\uc998": 22990, "\ub418\ucc3e": 8038, "\uc6a9\uc0b0": 7947, "\uc88c\uc0c1": 31342, "\uc721\uc548": 25912, "##\ub3d5": 2851, "\uc778\uc7a5": 29862, "##\uc20f": 3512, "\ub300\ud1b5": 28276, "##\uce04": 2979, "\uc11c\ub458\ub7ec\uc57c": 25852, "\ud2b9\ubcc4\uc0c1": 29304, "\ub530\ub73b": 5349, "##\ucde8": 2586, "\ub4a4\uc5c9": 24166, "\uc2e0\uc7ac": 10122, "##\uaebc": 2679, "\uc6b8\ucee5": 23923, "[unused312]": 31812, "##\uc2dc\ud5d8": 17057, "\ud50c\ub7ab\ud3fc": 17090, "cons": 29280, "\ud3b8\ubc31": 26625, "\uc774\uc21c\uc2e0": 10661, "##\ub098\uc774": 7461, "##\uc815\uc9c0": 21392, "##\ud3ed\ud48d": 17597, "\ud14c\ud06c\uc708": 30407, "##\uc6c3": 2852, "##\ud61c": 2702, "\uacb8\uc190": 11663, "\ud55c\uc9c4": 8818, "\ub290\ub824": 22425, "\uc2dc\uc5d0": 27603, "\ubca0\uc774\ucee8": 20227, "\uc2e4\ud559": 24788, "\uc120\uac70\uc77c": 25340, "\uc5b4\ub824\uc6cc\uc9c4": 31403, "\uae30\uc555": 28556, "\uac70\ub8e9": 15174, "\ub85c\uc6b0": 15913, "\uade4": 635, "##\ubc84\ub9b0": 16199, "##\uafc8\uce58": 12467, "\ube0c\ub7f0\uce58": 18766, "\ubb3c\uc790": 14742, "61": 6586, "\uc800\uc6b8\uc9c8": 25965, "\ucd5c\uac15\ud76c": 22765, "\uc300\uad6d\uc218": 21964, "\u6a5f": 400, "\ud55c\uad6d\uc77c\ubcf4": 23589, "\ud53c\uc870": 21168, "\ube14\ub85d\uccb4\uc778": 18966, "\ud504\ub85c\uadf8\ub798\uba38": 25650, "\uc870\uc9c1": 4001, "\uccd0\uc11c": 17419, "\ubc88\ubc88": 16918, "\ubd88\uc0c1": 14506, "[unused375]": 31875, "\uc158": 1277, "\ub178\ub9ac": 7838, "221": 26125, "\uad74": 619, "\uce74\ud130": 20604, "\uc804\ud5a5": 14623, "CNS": 30433, "\uc5b4\uac00": 28361, "\ubb3c\uace0\uae30": 8747, "\ud655\uc2e4": 4592, "\uc911\uc559\uc120\uad00\uc704": 29870, "\ubc14\ubca8": 26646, "\ubc18\ub824": 8975, "\ucd5c\uacbd\uc8fc": 20490, "\ub9de\ubb3c\ub9ac": 24088, "##\ub2e4\uc624": 19399, "\ub178\uc870": 4602, "\uc601\uc5c5\uc2dc\uac04": 18114, "\ub098\uc774\uc9c0\ub9ac\uc544": 18739, "\ub0b4\uc815": 8321, "\ubb3c\ub4e4": 16552, "##\ucf00\uc774\uc158": 5926, "\uc9c0\uc5f0": 7035, "\ub46c\uc57c": 16684, "\uc0ac\uc8fc": 15058, "\ub365": 837, "\ud3d0\uae30": 6544, "\uc544\ub1e8": 17879, "\uc9c8\ub800": 11468, "\ucc38\ub098\ubb34": 27015, "##\uc9dc\uae30": 13457, "\ub2e8\uac70\ub9ac": 19293, "\uc6d0\uc0c1": 18189, "\uc0bc\uacb9\uc0b4": 11183, "\uac15\ub0a8\uc5ed": 17676, "\uc54c\ub85d": 26850, "\uad00\ub3d9": 21942, "\uadf8\ub7fc\uc5d0\ub3c4": 6681, "\ub3c4\ub2f9": 11502, "\uc790\ub8cc": 4208, "\uc18c\ud615\ucc28": 22845, "\ub9de\ucdb0\uc11c": 18083, "\uc11e": 1260, "\uc81c\ub300": 13896, "\ubc84\ub824\uc9c4": 17940, "\ud55c\ub2e4\uace0": 4034, "\uc5b4\uc124\ud508": 24627, "##\ud68c\uc758": 7288, "\uc5b4\uc694": 3680, "##\uc885\uae30": 30523, "\uace0\uc900": 31277, "\ub2f7\ucef4": 11745, "##\ubcfc": 2345, "\uc624\ubbf8\uc790": 23504, "\ud14c\ub108": 26411, "\ubfcc\ub9b0": 20966, "\ub3cc\uc544\ub2e4\ub2c8": 10081, "##\ub958": 2397, "##\ub9e3": 3471, "\uacf5\uae08": 28046, "\uc2e0\ub2f9": 22483, "\uc544\uc774\ucf58": 14658, "\uc5f0\uacb0": 4440, "\ud589\uc778": 20339, "\uae30\ub85c": 20093, "##ator": 25784, "\uadf8\ub140": 3821, "##\ube4c": 2548, "\ud06c\ub9ac\uc2a4\ud0c8": 25259, "7500": 20311, "\ud23c": 1805, "\uc73c\ub860": 9840, "\u897f": 485, "\ud3ec\uc2a4\ucf54": 5853, "\ud654\ucc3d": 28397, "\uae40\ud574": 6967, "640": 27291, "##\ubb34\uc18c": 14499, "\uae00\uc37d": 29812, "\uc0c1\uc7a5": 5934, "##\uae4c": 2299, "##\uc874": 2869, "\uc5c8\uc796": 18692, "life": 28133, "\ud30c\uc774\uc5b4": 22021, "##\ud54d": 3220, "\ub514\ub108": 28078, "an": 11171, "\uc11c\uc810": 9462, "\ube59\ube59": 28756, "\ub178\uc2ec": 27363, "\uacbd\uc7c1\uc0ac": 12086, "\u203b": 123, "[unused401]": 31901, "\uacbd\ucc30": 3858, "\ub2f4\ub2f9": 4476, "\ub300\uc0b0": 24029, "\uc694\uc6d0": 7951, "\ub291": 792, "\ub2e8\uc228\uc5d0": 14127, "\ubc14\ud0d5": 4875, "\uc601\uc811": 27213, "\ube44\ud0a4\ub2c8": 24036, "\uc548\ub9c8": 17824, "\ubc14\ub2d0\ub77c": 24306, "\ub9e4\uc7a5\ub7c9": 30844, "\uc2dc\ud5d8": 4448, "\ud3ed\uc2a4": 11373, "\ud06c\uae30": 5585, "##\uad6c\uc774": 19125, "\ud5c8\uc601": 19307, "\uc0ac\ub9bc": 24248, "\uc2e4\uc5c5": 6235, "##\ub429": 3598, "\uc720\ub9ac\ucc3d": 15494, "\uce74\ub2e4": 20462, "##\uc721": 2193, "\ub527": 894, "\uc774\ubbfc": 7191, "\ub3cc\uc544\uc628\ub2e4": 18902, "\ubaa8\uacf5": 14431, "\uae30\uc6b8": 5197, "\uc5b4\ub54c\uc694": 17695, "##\ubd80": 2144, "\ub3c4\ub85c\ubcc0": 25310, "\uc18c\ub9e4\uc5c5": 28577, "\ubc1c\ub784": 16303, "##\ucc98\ub9ac": 20111, "##\ube44\uc2b7": 22611, "\uc2f1\uadf8": 24505, "\ud604\uaca9": 30599, "\uba54\uc774": 5659, "\ud53c\uce6d": 19968, "\ud559\uad70": 19488, "##\ub5a8\uc5b4\uc9c4": 17395, "\ubcc4\ube5b": 24881, "\ub3c4\ud615": 24863, "\uff62": 1994, "\ubc84\uc813": 23599, "\uad00\uc911": 8862, "##\ub0b4\ub9ac": 9825, "##e": 2007, "\uc2ac\ub7a8": 26187, "\ubd80\uc0b0\ub300": 14457, "\ud574\uc81c": 7598, "\ub300\uc878": 14974, "op": 17630, "\ubd88\uc774\ud589": 30074, "\uc704\ucd95": 7967, "\ud638\uce6d": 14526, "\uae30\uc790": 4055, "\ucc10": 1627, "\uc0c8\ub85c\uc774": 17029, "\uc2e0\ub77c": 6423, "\uc591\ubcf4": 8745, "\uc624\ub79c": 5017, "\uc544\ub8b0": 22665, "##\ucc98\ubd84": 12892, "\uc54c\ub809": 10662, "\ud48d\uc18d": 12900, "##\uafb8": 2660, "\ub77c\uc774": 4888, "\ud3b8\uc9d1\uc7a5": 20410, "\ubc1d\ud600\uc9c8": 28901, "\ub178\ud2b8\ubd81": 11161, "\ubc15\uc6d0\uc21c": 11278, "\uc5f0\uc2b5\uc7a5": 18315, "##riv": 27284, "\u318d\uc5ec": 19859, "[unused180]": 31680, "\uac15\ubaa8": 29781, "\uce74\ud1a1": 16529, "\uc74c": 1500, "\uc5f4\ub78c": 14269, "##man": 9811, "\ub3d9\uc778": 14260, "\ub8e8\uc2dc": 16852, "\ub3c4\ub300\uccb4": 6641, "\ucf00\uc778": 17721, "##\ub0b4\uae30": 13749, "\ub04a\uc5b4\uc9c4": 29614, "252": 29538, "\uac04\ub2e8\ud788": 10798, "\uac1c\ub9c9\uc804": 13639, "\ub0a8\ub3c4": 15366, "BT": 24305, "\uc2a4\ud398\uc774\uc2a4": 15604, "\uace0\uc0b0": 19389, "\ubc15\uc138": 15267, "\ubc18\ub3c4": 6069, "\ud2b8\ub9ac\ud50c": 14448, "##\ud038": 3416, "\ud53c\ub77c\ubbf8\ub4dc": 18278, "\ubca0\uc2a4\ud2b8": 7351, "\uac08\uc544\ud0c0": 20308, "\ud654\uacf5": 31051, "\uc5f4\ud758": 12191, "##\uc5fc": 2278, "\ubaa9\uccad": 21683, "FI": 10036, "\uc790\uc0ac": 8233, "\uac04\ub2e4\ub294": 12781, "##\ub124\uc784": 29270, "\uc7a0\uc2dd": 17654, "\ubd88\uac00\uc0ac\uc758": 28939, "\ud0b9": 1760, "\u043e": 107, "\uc785\uc131": 17931, "\uc73c\uba70": 3745, "\ud604\ub300\uc81c\ucca0": 14277, "\ub300\ub098\ubb34": 13813, "\uad11\ud559": 19929, "\uc18c\uc784": 27136, "\ud1b5\ucc30\ub825": 17751, "##\uc800\uc6b0": 11110, "\ud589\uc7a5": 11087, "\u318d\uc7ac": 23787, "\uac74\ub370\uc694": 15845, "\ubcf5\ub3c4": 11340, "\uc870\ub9ac\ubc95": 28587, "\ucd1d\ud0c4": 27142, "\uc624\uc7ac": 25938, "\ud559\ubc8c": 21048, "\ud5c8\uade0": 26183, "\ubaa8\uc544": 5302, "1981": 12148, "##\uc758\uc2dd": 9512, "\uc54c\ub85d\ub2ec\ub85d": 27298, "\uace0\uc2b9": 25192, "\ud30c\ub4dc": 30410, "\ub2f4\ubc43": 16536, "\ud6a8\uc728": 4955, "Pl": 13696, "\ubd88\ucf8c\uac10": 25901, "##\ubd84\uc790": 25354, "\uc2e0\ubb38": 4336, "\u5802": 300, "\uc870\uad50": 17540, "\ube0c\ub77c\ub354\uc2a4": 30496, "##\ud30d": 3125, "\uc9dd\ud241": 24177, "\uc131\uc528": 28773, "\uae30\ub85d\ubd80": 21197, "\uae40\uc11d": 15609, "\ub3c4\ud1b0": 30106, "\uc0c1\uc0dd": 7106, "##\ud37c\ub2c8": 13775, "\uc21c\uad50": 18223, "\uc0dd\ud6c4": 18277, "\ud559\uae30\uc81c": 22230, "\uae54\uae54": 24228, "\uba38\ub4dc": 28929, "\uc600\uc73c\ub2c8": 17849, "1948": 14384, "\uc0f9": 1256, "IOC": 15744, "\ub3d9\ubd80": 6369, "\ubd80\ub3d9": 4403, "\ubabb\ud55c": 4095, "\ub0c5": 736, "\uc5b4\ub834\ud48b\uc774": 25717, "\ud669\ubcf4": 27171, "\uad11\uc548\ub9ac": 25158, "\ubbf8\ub044\ub7ec\uc9c0": 21371, "\ud53c\ub825": 13173, "\uc11c\uc11c": 8028, "\uc74c\uc9c1": 24131, "\ud3b8\uc758": 5347, "\uc870\ubaa8": 29053, "\uac70\ub798\ub7c9": 12025, "##\ud15d": 3386, "\ubb3c\ub7ec\uc124": 27860, "1973": 12959, "\ud751\uc790": 8924, "\ud575\ubb34\uae30": 11590, "\ubc84\uc9c0": 19897, "\ud14c\ub9ac": 28002, "##\ubcf4\ud2b8": 29254, "\ud0a4\uc6b4": 13653, "\uc774\ubd10": 18266, "\ud56d\uacf5\uae30": 8434, "##\uc2a4\ucf00": 22807, "a": 68, "\uacfc\uc815": 3747, "\u2161": 127, "\uc720\uce58": 4415, "\ud788\ub9d0\ub77c": 18645, "\ud798\ub4e4": 4390, "\uac15\uc11d": 22982, "\ub9ac\ud2b8": 25778, "[unused194]": 31694, "\ub0ae\uc7a0": 18962, "\uc7a5\uc545": 7442, "\ud3ec\ud138": 8279, "\ud55c\ubc88": 6791, "\ud5e4\uc544": 13645, "\ube0c": 1184, "\uce58\uc548": 11409, "\ub2e4\uc84c": 17097, "\ucd1d\uc7ac": 8219, "\uace0\ub4f1\uad50\uc721": 24312, "\uca4c": 1605, "\ubc1c\uc0ac": 6358, "##\uc9d3": 2920, "\uac00\ud574\uc790": 10975, "\uc218\uc0c1": 4812, "\uc900\uc601": 22308, "##\uc558": 2886, "\uc0ac\uc6a9\uc790": 15259, "\uad50\ub9ac": 12923, "##\ud2c0\ub9ac": 24314, "\ucc98\uc9c0": 7398, "\uc783\uc5b4\ubc84": 8980, "\uc5c9\ud130\ub9ac": 19939, "\ubb34\ubd84\ubcc4": 14793, "\uc544\ud30c\uc11c": 19820, "\ub860": 993, "\uacfc\uc18d": 23479, "\uc0ac\ud22c": 28188, "\uc601\ud68c": 29818, "\ub300\ubcf8": 12183, "\ub098\uc120\ub2e4\ub294": 28517, "146": 16657, "\uc804\ub9bd\uc120": 18072, "##\ubc14\uad6c\ub2c8": 20507, "\ud588\uc73c\uba70": 4800, "##\ub840": 2793, "\ub9de\uc740\ud3b8": 14458, "\uc904\uac70\ub9ac": 15735, "\ub9c8\ub978": 10853, "\uc811\uc5b4\ub4e4": 9311, "\ud0c8\ud575": 30135, "\u7269": 427, "\uc18c\uacf5": 20448, "\uccad\uc57d": 6615, "\ucca0\ud310": 21367, "##\ub0ab": 2458, "\ud574\uc548\uac00": 30063, "\uc9c0\ubd80\uc7a5": 14375, "\uc804\uc2dc\ud68c": 7170, "\uc1a1\ud61c\uad50": 27673, "\ube44\uc548": 31183, "\uacfc\uc790": 9496, "\uad50\ud669": 8656, "\ubf50\ub0c8": 21822, "\ud53c\ub77c\ubbf8": 17266, "\uacc4\uae30": 4944, "\ud53c\ud55c": 29547, "##\ub9ac\uc2a4\ud2b8": 7574, "\uc8fc\uc804\uc790": 25481, "\ucc28\uc885": 12139, "\ub9cc\ud55c": 19341, "\ucd1d\uc54c": 17740, "\ud310\ub9e4\uc6d0": 28121, "\uc591\uacc4": 31095, "\uc0c1\uc218": 10819, "\uc5c4\uc5f0\ud788": 22510, "\ub3c4\uc6b0\ubbf8": 14080, "\ub54c\ubb38": 3624, "\uc1a1\uc2b9": 23399, "QM": 28607, "\ud55c\uc790\uc5b4": 30483, "##\uc4f4": 2732, "\uc77c\uba74": 20053, "\ubc1b\uc544\ub4e4\uc5ec": 7302, "\uc2ec\ud558": 7090, "\ud5f7\uac08": 17149, "\uc2a4\ud3ec\uce20\uce74": 24619, "\uac70\uc561": 11957, "\uc778\ud574\uc11c": 15899, "\uc131\uc644\uc885": 23170, "\ub2e8\ube44": 21470, "\ubc1c\ub4f1": 20746, "\uc131\ubaa8": 14386, "\uc9c4\ud759": 14912, "\uac04\uc808": 8915, "##\uca84": 3036, "\ube7c\uc557\uacbc": 26450, "Rel": 19850, "\uc9d6": 1592, "\uc0c1\ud55c\uc120": 23733, "\uad74\uace1": 20761, "\uc544\ub984\ub2e4": 4689, "\uc81c\uc124": 25089, "\ub834": 985, "\ubc15\uc120": 19609, "\uac10\uc548": 5584, "\ub2f5\ud55c": 22319, "##\ube44": 2151, "[unused410]": 31910, "SBS": 7164, "##\uafb8\ub7ec\uae30": 27829, "\uc628\ub3cc": 31386, "\uc758\ud574\uc11c": 7079, "##\ub9ac\ud788": 18086, "\ub9c8\uc2a4\ud06c": 8979, "EM": 29005, "1944": 23315, "\ub9c8\ucc30": 11342, "##\ucc3d": 2335, "\ud33d\uc774": 31272, "##\uac78\ub9ac": 10172, "\uc5f4\uc131": 28654, "##OD": 17527, "\uc2dd\ube44": 29567, "\ud2c8\ud0c0": 26329, "##\ubb34\uc2e4": 12520, "\ubc1c\ub9de\ucdb0": 21979, "##MS": 15428, "\ud3ec\uc0c1": 12568, "\ud759": 1962, "\uc704\ub098\ub77c": 29016, "##\ud478\ub974": 22449, "\uce58\ub978\ub2e4": 16378, "\uc2a4\uc2a4\ub85c": 4201, "\ubaa8\ub178": 17005, "[unused429]": 31929, "\u601d": 353, "\uc81c\ubcf5": 24931, "\uc804\ud568": 26931, "\uce58\ub7ec\uc9c4": 16602, "\ubd09\uc6b0\ub9ac": 20418, "##\uc790\ub9e4": 30713, "\ub2f9\ud55c": 6391, "\ubb3c\ub7ec\ub0a0": 27476, "[unused65]": 31565, "\uace0\ub4f1\ud559\uc0dd": 11284, "\ud0c0\uc784\uc988": 30256, "MP": 16127, "LG": 4326, "\uc218\uc5ec": 10336, "\ub0a8\ub300": 14930, "\uc774\ubcf5": 29683, "\ub300\uc218": 10616, "\uc804\ubaa8": 25998, "\uc778\ubd80": 20443, "\ubb18": 1087, "\uc624\ud0a4": 13152, "\ud6c4\ubc18\ubd80": 19824, "##\uc6cc\uc84c": 14578, "\uc785\uad6d": 10549, "##\uc5d0\uc2a4": 12830, "\uad18": 610, "##\u315c\u315c": 11863, "##ution": 16803, "\uc190\uc0c1": 7465, "\uc644\uacf5": 7744, "\ub2e4\ub140\uc624": 12743, "\uc1e0\uace0\uae30": 11457, "##\ud0a4\uc2a4\ud0c4": 10744, "\uc2eb": 1330, "[unused321]": 31821, "[CLS]": 0, "\uc7a0\uc785": 28446, "\ub4e4\uc5ec\ub193": 20074, "\ud1a0\ub2e5": 30584, "\ub0b4\uac01": 9405, "\uc11c": 1258, "\ubb35\ubb35\ud788": 12943, "\uac00\uc561": 15370, "\uacf5\uae09\ub7c9": 22332, "\ubb3c\uc5b4\ubcf8": 29887, "\uc885\uacb0": 12200, "##79": 23700, "244": 28934, "\uadc0\uc5ec\uc6b4": 10379, "\ube0c\ub85c\ucf5c\ub9ac": 29367, "\ub0a9\uc138": 21977, "+": 15, "p": 83, "\uc54c\uc9dc": 21473, "##\uc9c0\uadfc": 27259, "Air": 29382, "\uc6c5\ud06c": 19500, "\ud2b9\uc704": 8641, "\ucf54\ubbf9": 14398, "\uc774\uc2ac": 7055, "\uc2e0\uc790": 11133, "1932": 22224, "##\ub0b3": 3270, "\ubc95\uc0ac": 19223, "\ubaa8\uc73c": 6410, "\uac77\uc7a1": 23537, "##\ub2e4\ub4ec": 10851, "\ud558\ub4dc\uc6e8\uc5b4": 14651, "[unused142]": 31642, "\ub204\uc218": 20682, "##\uc464": 2857, "\uad6c\uc2ac": 13051, "\uae09\ubb3c\uc0b4": 26118, "\uc228\uc18c\ub9ac": 21403, "##\ubd80\ub300": 24972, "\ub3fc\uc694": 6961, "\uace0\uc8fc": 24090, "JYP": 29233, "\ud45c": 1868, "76": 7115, "\uadf8\ub9b0": 5207, "\uc5f0\uaf43": 17699, "\uc751\uc9d5": 20310, "\ucd94\uc0c1": 9348, "\uc5f0\ud574": 23594, "##\ubf40": 2407, "##\ube44\uc548": 28907, "\ub178\ub824": 10631, "##\ub098\ub77c": 4274, "\uc870\uc900": 22128, "[unused356]": 31856, "\ubc1c\uc758": 9770, "\uce90": 1703, "\ud615\uc131": 4605, "\uc219\ub828": 15804, "IN": 23462, "##\ud54f": 2946, "\ubd81\uc11c": 20332, "\uc5ec\ub7ec\ubd84": 4988, "\uc9c4\ub2e4\uace0": 17755, "\uc808\uc784": 29123, "\uce94\ub514": 24197, "\ubc25\uadf8\ub987": 22625, "\u0441": 109, "##\ubc2d": 3214, "\ud55c\ub098\ub77c": 5143, "\uc99d\uac15": 15358, "\ub2f4\ubcbc\ub77d": 28216, "\uc815\uc6b0\uc131": 28300, "##oint": 21249, "\ud48b\ud48b": 28273, "\uc720\uc0c1": 12635, "##\ub9ac\ud2f0": 9147, "\ucd1d\ub9ac": 4866, "\uc624\ub354": 25538, "\uc7ac\uac1c": 7355, "\uc800\uc9c8\ub800": 14010, "\ud131\uc5c6\uc774": 15137, "\uc2dc\uacf5\uc0ac": 11773, "\ubaa8\uc774": 8990, "\uc704\uae30\uac10": 16282, "\uadc0\ud558": 16045, "\u4eac": 228, "##\uadf8\ub798": 12803, "\uac80\ucc30": 4153, "\ud14c\ud5e4\ub780": 26908, "\ud310\ub2e8": 4150, "[unused255]": 31755, "##\uacc4\uc0b0": 27420, "\ubaa8\ub2e5\ubd88": 30710, "\uc9c0\ub974": 9265, "##\ub625": 2837, "\uc218\ucef7": 17643, "\ubd88\ub7ec\ub4e4\uc774": 30532, "\ubc95\ub960": 5075, "\ubc15\uadfc": 4627, "\uc0c1\uac70\ub798": 13086, "\ud3ec\uace0": 21510, "\uc54c\uce74": 28207, "\uc9c8\uc218\ub85d": 18349, "##\ud154\ub9c1": 18878, "\ud5ec": 1915, "\ud0dc\uc548": 13560, "\ub77c\ubca8": 18745, "\ud3ec\ub3c4\uc8fc": 15831, "\uc131\uae09": 13719, "\uc6b0\uc655": 19728, "##\ud56d\uacf5": 6955, "\uc218\uc9d1": 6742, "##\uc740\uc774": 6176, "##\ud2b8\ub9ac": 7778, "##\ud2b8\ub2c8": 27562, "##mun": 14243, "\uac15\ud48d": 21078, "\uc2dc": 1325, "\uc74c\uc0c9": 23352, "\ud6a1": 1941, "\uac04\uc9c8": 23670, "\uc720\uc131": 10351, "\uc608\uc678": 7493, "\uc5f0\uba85": 20012, "\uc774\ucabd": 9755, "##\uc218\uc218\uc0c9": 9902, "##\uc816": 3063, "##45": 20898, "\uc99d\uc6d0": 19641, "\uc601\ud5a5": 3979, "[unused26]": 31526, "\uc694": 1464, "\uc62c\ub9b0\ub2e4": 14037, "\uc2a4\ud398": 8304, "\uadc0\uc694": 29328, "\ube4c\uc5b4\uba39": 22763, "\ud3ed\ud0c4": 8582, "\ub77c\uc774\ubc8c": 12574, "\ud729\uc2f8\uc600": 19209, "\ubd80\uc0b0\uc2dc": 7767, "\ucc3d\uc758\ub825": 13054, "\ubb34\uc18d": 29766, "\ubd09\ud669": 25290, "##ability": 29399, "\uaf2d\ub300\uae30": 15250, "\ud638\uc704": 15721, "\ud64d\uc218": 10396, "\uc545\uc7ac": 11440, "\ub0b4\ub824\uc624": 9005, "##\uc1fc\ud551": 27748, "\ubbf8\ubb18": 12928, "\uc124\ud0d5": 10273, "ed": 12117, "\ubd84\uc704\uae30": 4281, "\ub17c\uac70": 25307, "AI": 7212, "\uc0ac\uc0c1\uac00": 17934, "\ub118\uc5b4\uac04": 21848, "\uacf5\uacf5\uc5f0": 22963, "\ub3c4\ub824": 30095, "##22": 14694, "\ub3d9\uc0b0": 12785, "\ub9ac\ub354\uc2a4": 29962, "##89": 22934, "The": 5790, "\uc601\uac10": 8612, "##OT": 29690, "\ud328\ubc30": 7292, "\ub2ac": 800, "##nal": 16833, "A": 37, "##ople": 24639, "##\uc790\uae30": 4569, "\uc2e0\ud615": 15920, "\uac01\ubcc4\ud788": 21722, "\ubb34\uc2dc": 5509, "##61": 26421, "\uc2ed\uc790": 9703, "##\uce20\ud0a4": 26569, "\uc2a4\ud14c\uc778\ub9ac\uc2a4": 21590, "\uc5bd\ud788": 25747, "\ub04c\ub824\uac14": 28324, "\uc870\uacf5": 25896, "\ucd08\uc5ec\ub984": 30321, "\ud589\uc815": 4099, "\uc6d4\uc694\uc77c": 10132, "\uc77c\uc73c\ucf30": 9453, "\uad00\uc7a5": 8645, "##ight": 11141, "\ud53c\uace4": 8320, "\ucd2c\uc601": 4937, "\ub9ac\ub354": 5053, "\uc9d0\uc791": 7620, "\uac70\ucc3d": 12340, "##\uc154\ub2dd": 28676, "\uc801\uc2dc": 10483, "\uace0\ubc31": 7473, "\ubc29\ubb38\uac1d": 10968, "##\ud14c\ub974": 14311, "\uc544\ub291": 21309, "\uc9c0\ubc30\ud588": 28184, "\ub18d\uc218\uc0b0": 24655, "\uc7a5\ud0c0": 15342, "\u0442": 110, "\ubaa8\ubc1c": 11784, "##\uc740\ud76c": 21517, "\uc0bc\uc704": 25418, "\uad6c\uc870\uc8fc\uc758": 27293, "\uc774\uc548": 24018, "\uc720\uc138": 9812, "[unused175]": 31675, "##\ubc1f": 3467, "\uc790\uc131": 20659, "\uad34\ub85c\uc6cc\ud558": 30455, "##\ub0c9\uba74": 24377, "11": 3718, "\uc544\uc778\uc288\ud0c0\uc778": 17240, "\uc2f9\uc4f8\uc774": 21679, "\ubd80\uc7a3\uc9d1": 24184, "\ubb36\uc778": 22704, "\uc774\uc0ad": 24665, "\uc0b4\uc0c1": 21180, "\uc11c\uc7a5": 10319, "\ucde8\uc0ac": 25752, "xxx": 22090, "##\ud658\uacbd": 5298, "\uc911\ucd94": 14290, "\ud5e4\uc5b4\ub098": 30748, "##\uac70\ub824": 25951, "\uacf5\uc791": 8141, "\uc5d0\ubc14": 27911, "\ucc3d\uc0ac": 23339, "\ub2ec\ub798": 9897, "\ubd84\uc57c": 3993, "\ub4f1\uae30": 9138, "\uc5ec\uacfc": 19780, "##\uc9c0\ubc30": 30267, "##65": 25562, "\uac15\uc81c\uc131": 31181, "\ucd94\uc7a5": 30594, "[unused441]": 31941, "\ucc3d\uac74": 20865, "\uad6c\ub85c\uad6c": 27913, "st": 7982, "SC": 12836, "\ubb38\uc9d1": 24598, "##\ud45c": 2316, "\uacbd\ub825": 6180, "##\uaf42": 2358, "\uc73c\uba74": 3688, "\u315c": 195, "\uc0b4\uade0\uc81c": 19462, "MMOR": 26906, "##\uc120\uac70": 17759, "\ud654\ub048": 15652, "##\uc6d0\uc9c0": 14301, "\ub300\ud574\uc120": 8308, "\uc5f0\uc791": 21370, "\uc6c0\uc9c1\uc778\ub2e4": 18194, "\uc18c\uc74c": 7516, "\ubbfc\uac10": 7198, "\uc790\ub8cc\uc9d1": 26950, "##q": 2032, "\uc0ac\uc548": 6463, "##ower": 16254, "##\uc9c0\uc6d0": 17138, "\ubb34\ub835": 6649, "\ub204": 778, "\ub8ec": 1004, "\uae30\uad00\uc7a5": 13776, "\uc548\uc7a5": 20887, "##\ucc3c": 3079, "\uae40\uc601": 5553, "\uc5b4\ub54c": 10604, "\uac80\uc815\uace0\uc2dc": 28254, "\ud654\ud569": 8412, "\ub2e4\uac00\uac00": 9287, "\ubd80\ud68c\uc7a5": 5875, "##\uacf5\uaca9": 24367, "##we": 19742, "\uc800\ud0dd": 14363, "\uc801\uae08": 11677, "\uc308": 1340, "\ubc14\ub77c\ubcfc": 14824, "\uc544\uc2dc\uc548": 8241, "\ubc14\uc6b0": 14855, "\uad50\ud1b5": 4352, "191": 6874, "\uc22d\uc2e4": 24816, "\ub9cc\ub2a5": 17961, "\ubaac": 1081, "FO": 21122, "\ub3d9\uc11d": 31070, "\uc720\uce58\uc7a5": 30624, "##\ub09c\ubc29": 19430, "##\ub098\uc2a4": 23029, "\uc77c\ud130": 16577, "\ub215": 783, "\uc138\uba74": 28263, "##\uc5b4\ub0ac": 4909, "##\ub35c\ub780\ub4dc": 8420, "\ub300\uc6d0": 8041, "\ud758\ub9ac": 7549, "\uc7ac\ubc94": 27832, "\uc870\ub825\uc790": 28196, "\uc9c0\uc6d0\uae08": 9359, "\ubcf5\ubcd1": 26100, "\uc2dd\uac10": 12694, "\uc870\uc6a9": 5574, "##\ucd1d\ub9ac": 6384, "\ubc30\uc6b4": 8174, "\u8a00": 492, "\uc7ac\uc791\ub144": 27463, "\ub0b4\uace0": 30524, "\uc0c1\ud588": 25624, "\uc774\ub808": 30320, "\uc5b4\ub824\uc6cc": 6767, "\ube57\ubc29\uc6b8": 26358, "\uad73\uc5b4\uc84c": 28162, "\uc2f8\uc6b0": 6817, "\ucc38\uc804": 12146, "\uc5f0\ub8cc\uc804\uc9c0": 18053, "\uc5f0\uc8fc\uac00": 27009, "\ucda7": 1678, "##\ub365": 3053, "\ub3d9": 856, "\uacc4\uba85": 12622, "##\ud2f0\ud2f0": 23314, "\ud0c0\uc120": 10872, "\ube60\uc9c4\ub2e4": 19588, "##BC": 4953, "\ub9dd\uc5b8": 28966, "\ube0c\ub860": 30543, "\ubcf4\uc0c1": 5175, "\ub530\ub048": 24617, "\uc608\uc058": 7693, "\ubaa8\uc77c": 30064, "\uc120": 1261, "\uc5b4\uba38\ub2d8": 11650, "\ubc24\uc911": 15255, "\ub354\ube14": 8881, "\ud3ec\ub85c": 11078, "\uc220\uc9d1": 11285, "\uc800\uac78": 26335, "\uc5d0\ub4dc": 11353, "##NA": 9269, "\uacfc\ubbfc": 26133, "\ucf54\uc624\ub871": 12724, "##\ub810\ub77c": 19265, "\u00b4": 99, "\uc720\ub150": 23899, "\uc2a4\ud30c\uac8c\ud2f0": 23115, "\uc5b4\uc6a9": 14812, "One": 21868, "\ub370\uce74": 18612, "\ub4e4\uc5b4\uac04\ub2e4": 10303, "\uc720\ube48": 28760, "\uc790\uad6c": 14509, "\uc1e0\ud1f4": 15000, "\ubc84\ub514": 11269, "\ube48\ubc88": 12135, "\uae08\ud68c": 20621, "\ub5a8\uc5b4\uc9c8": 9612, "##\uba38\ub2c8": 3882, "##ub": 8438, "\uacfc\ubc00": 27458, "\ubd80\uce68": 21738, "\ub300\uc7a5": 6085, "\ub9e4\uc9c4": 10072, "\ud604\uc6b0": 21296, "\uc2ac\ub9ac": 18293, "\ubc30\ucd9c\uad8c": 29588, "\ubab0\uc785": 11306, "\uc9c0\uc6b8": 19165, "\ud6a8\uc131": 11326, "\ud559\uc5f0": 24063, "\uae38\ubaa9": 17109, "\uc21c\uac04\uc21c\uac04": 31448, "\uae08\uc735": 3786, "\uc8fc\uc9c0": 12527, "\ubd80\uc801\uc808": 12719, "##chen": 23915, "##\ud63c": 2123, "\uc5ec\uac04": 13500, "\uc81c\uc0ac": 9234, "\ubcf4\uc628\uc131": 27029, "\uc785\uc591": 11930, "\ud50c\ub79c": 7942, "\uc18c\uac1c": 4348, "\uc2e0\uc778": 7585, "\ud50c\ub7ec\uadf8": 23360, "\ub300\ucca9": 29248, "\uc228": 1300, "\uc7a1\ucd08": 18723, "##\uac1c\ud1a0": 27469, "\ud754\ucf8c": 19095, "\ub9de\ucdb0\uc838": 24438, "fe": 25922, "\uc5d4\uc9c0\ub2c8\uc5b4": 10006, "##\ud1a0\ud53c\uc544": 19447, "\uc601\ub4f1\ud3ec\uad6c": 21552, "\uc73c\ub2c8\uae4c\uc694": 10501, "\uc6b8\ud0c0\ub9ac": 13047, "\u3160": 196, "\uad8c\ub2e8": 13425, "\u738b": 429, "\uc774\ub825": 10114, "\uc2e4\ud589": 6213, "\ub9e8\ubc1c": 24799, "##\ub450\ubd80": 23669, "\ub80c\uc988": 9793, "##\ub370\uc790\ub124\uc774\ub8e8": 27067, "\ud569\uacc4": 10801, "\ub9de\ud788": 21599, "\ud3b8\uacac": 9354, "\uc11c\ubbfc": 5946, "\uce90\ub17c": 24740, "\ubaa8\ud2f0\ud504": 29169, "\ub354\ub7ec\uc6b4": 15186, "\uc124\uacbd": 28087, "##\ub79c": 2639, "\uc778\uac04": 3804, "\u4e8c": 226, "\uacf5\uac10": 5487, "\uc7a0\ub4e0": 18357, "\ubc15\ubaa8": 15653, "\uc2e0\uaddc": 5089, "\uc559\ucf54\ub974": 24891, "##\ub354\ub2c8\uc998": 16452, "\uc560\ud0c0": 24205, "\uc911\uc6a9": 17948, "\uc11c\uc720": 28042, "\uac04\ubcd1": 19273, "\ud574\uc0b0": 10395, "EBS": 12216, "\uc624\ud398": 8011, "##\uc13c": 2563, "##\uc740\ud589": 4701, "\uc2a4\uc988": 23965, "\uc774\uaca8\ub0bc": 27106, "\ub178\ubb34\ud604": 6545, "##\uad6c": 2251, "\ud0d1\uc7ac": 8167, "##\ub300\uc7a5": 16328, "\uc3df\uc544\uc84c": 13230, "\ubcc0\ube44": 17445, "\ub85c\ub80c": 28206, "\ud638\ub5a1": 30326, "man": 18911, "\uad11\uad6c": 25937, "\uc911\ubcf5": 10165, "\uae30\ucd9c\ubb38\uc81c": 28478, "\ud68c\uc0c1": 11266, "\uccad\uacc4": 12714, "\uc790\uc874\uc2ec": 8408, "\uc2dc\uccb4": 9386, "\ub4b7\uba74": 17423, "\ud68c\ud53c": 9760, "\ubb34\uc11c\uc6e0": 22784, "\ud504\ub780\uccb4": 31455, "##\uac07": 3555, "\ucd5c\ud76c": 20639, "\uc18c\ubcc0": 14215, "\ubc00\ucc29": 11032, "\ub36e\ubc25": 23155, "\uc6a4": 1467, "\uac78\uc791": 19777, "##\ud30c\ud06c": 9541, "\uc885\uc77c": 8516, "\uc720\uc608": 11422, "\uc0ac\uad50": 16711, "NY": 16471, "Li": 26966, "\uc790\uc8fc": 4695, "\uc218\ube44\uc9c4": 29753, "\uae30\uc6d0\uc804": 11561, "\uc804\uad6d": 3952, "\uc218\uc628": 23967, "\uc815\uc218\uc7a5": 19591, "##\ubd88\uc131": 30005, "\ud280\uc5b4\ub098\uc624": 23927, "\uccad\ud574": 21359, "\ub300\ub2f9": 22698, "\ubb34\uc218": 11704, "\ud558\ud0a4": 29079, "\uc2e0\ubd80": 6988, "\uad0c": 608, "\uad6c\uc218": 18760, "\uc5ec\uae30": 3776, "\ub9d0\ub9ac": 10803, "\uac8c\uc774": 9709, "##\ub108": 2445, "\uc548\uaca8": 9805, "\uae30\ubed0": 9221, "\uc2a4\ud504": 8498, "\uc0ac\ubb34\ucc98": 22282, "\ub6ab\uc5b4\uc9c0": 29437, "\uc774\uc8fc\ub178": 24717, "\uc778\uc7ac": 5368, "\ub0c4\uc0c8": 5695, "\ub4e4\uc5b4\uc904": 28869, "\uc218\ube48": 22180, "\ub3c4\ucc29": 5082, "\ubd88\ucf8c": 10835, "\ud2b9\ud654": 7677, "##\ubd10\uc57c": 9766, "love": 27415, "\uacf5\ub300": 12808, "\uc808\uac1c": 17106, "\ud654\uc774\ud2b8": 7482, "\uc815\ud669": 9146, "\u25b7": 151, "##\ucea3": 3298, "1964": 16217, "##\uc120\uc5b8": 27203, "\uc124\uba85": 3788, "\uc778\ucc9c\ud56d": 17917, "\uc2a4\ud300": 19853, "\uc2e4\ucc9c": 4980, "\uc911\uc5bc\uac70\ub9ac": 18606, "##\ub2e4\ub294": 4000, "\uc9d1\uc911\ud638\uc6b0": 25642, "##\uc53d": 3234, "\uc5d1": 1422, "\uae30\ub308": 31075, "\uc138\ubb34\uc11c": 22280, "\uc0ac\uc758": 21761, "\uc2a4\ud2b8\ub808\uce6d": 17313, "\ub059\ub059": 29069, "##\uc2a4\uce74": 10734, "\ub315\ub315\uc774": 31301, "\uad00\ud604": 22835, "\uc5b5\uc555": 8538, "\uc601\ub4f1": 11339, "\uc9c0\ub2a5": 8813, "\ucc2c\ubb3c": 16210, "\ub808\uc54c": 14714, "##\ube0c\ub9ac\ub4dc": 9333, "\ubd80\ub7ec": 17262, "\uc4f8": 1366, "\uc2e4\ubc84": 12128, "\ub290\uc2a8": 17195, "\uad6c\ub3c4": 6985, "\ucc3d\uc124": 12811, "##\uc2dc\uc6d0": 22101, "\ud654\uc6e8\uc774": 21157, "\uc0ac\uc6b4\ub4dc": 11921, "\ub0a8\ub9e4": 11669, "\uc0ac\uc9c4": 4035, "\ubbf8\uc131\ub144": 16908, "\ubc31\uc815": 30065, "\ubc18\ucd9c": 19823, "\uc801\uc0c9": 26878, "FBI": 23626, "##\ud0dc": 2260, "\uadf8\ub798\uc11c\uc778\uc9c0": 19378, "##\ubc29\uc2dd": 14149, "\ubd99": 1181, "##instagram": 24913, "##\ubcbd": 2710, "\ud55c\uaecf": 12006, "\ub17c\ub780": 4496, "\uc6b0\ud45c": 24005, "\ud56d\uc77c": 14552, "\ubc15\ud604": 18152, "2009": 4877, "\uad50\ud5a5": 12911, "\ub9e1\uae34": 17653, "\uc77c\uc81c\ud788": 9710, "\uacfc\ub300": 17392, "\uc2a4\ud14c\uc774\ud06c": 11130, "\uc785\uc810": 9536, "\ud640\ub9ac": 20370, "\uc5f0\uac04": 5341, "\ud574\uace8": 27021, "\ub9ac\uc2a4\ud2b8": 8372, "\uc9c4\ub9ac": 6960, "\ud558\uc640\uc774": 13261, "\uc2dc\ub4dc": 12287, "\uc624\ub7ab\ub3d9\uc548": 6386, "\ucc28\ubd84\ud788": 24270, "##ach": 13329, "##\ub7ab": 2993, "\uc720\ud1a0\ud53c\uc544": 20862, "\ub9c8\ub0e5": 11308, "##\ub0a9\ub2c8\ub2e4": 15711, "\ub2e4\uae09": 14178, "##\ud0c0\uc778": 8250, "\uc2dd\uc2b5\uad00": 19206, "\uc911\ud658\uc790\uc2e4": 26988, "##ke": 8010, "\uac11\uc0c1\uc120": 18486, "\ud0d0\ub77c": 22429, "\ud50c\ub808\uc774": 5382, "\uc800\ubcc0": 16822, "\uc758\uad6c\uc2ec": 14166, "##\ud2f0\ubaa8\uc5b4": 26617, "\ub2f4\ubc43\uac12": 29212, "##21": 21289, "\ud22c\uad6c": 12164, "\uce68\uc218": 14660, "##IS": 7554, "\uc568\ub7f0": 20362, "\ubd80\uc758": 12369, "\uc0ac\uc6a9\ubc95": 20650, "Peter": 31113, "\ubaa8\ube44\uc2a4": 14205, "\uc811": 1541, "\uc154\ud2c0\ubc84\uc2a4": 23918, "\ub3d9\ub9f9\uad6d": 20753, "\uac74\ucd95\ubb3c": 9233, "\uae50": 656, "\uc548\ud0c0\uae4c\uc6b4": 11491, "##\uad00\uacc4": 8812, "##\uc74c": 2053, "\uac01\uae30": 9659, "\ud754\ucf8c\ud788": 19840, "\ub0b4\uc218": 7435, "\uace0\ucc29": 18498, "\ub053\uc774": 15435, "\ub3c4\ucfc4": 7095, "\ubc95\uc778\uc138": 11100, "30": 3740, "##\ub0b1": 3008, "\ubcf8\uccb4": 17821, "\ube60": 1196, "\uad00\ub300": 16816, "\uc3e0\ub9bc": 21945, "##\ucde8\uc5c5": 18413, "\uc0b0\uc785": 30487, "\ub2e4\ub140\uc640": 30299, "\uc608\ucee8\ub300": 8283, "##ater": 15919, "\uc801\uc2ed\uc790\uc0ac": 23433, "\ud654\uc774": 25670, "\ubc30\ud2c0": 20225, "\ucca0\uc870\ub9dd": 29395, "\ud83d\ude0d": 2002, "\uac01\uad11": 11333, "\uc465\uc465": 23129, "official": 23017, "##ing": 4586, "\ud3f4\ub77c": 22732, "\ud30c\uc2dc\uc998": 19797, "\ud68c\uc758\ub85d": 19931, "\uc744": 1498, "\ube68\ub77c": 9560, "\ub9e4\uc2e4": 18572, "\uc7ac\uacbd": 22714, "\uace0\ubb3c": 21201, "\ucc9c\uc0ac": 10120, "\uc2dc\ub4dc\ub2c8": 18459, "\ub3c5\ub824": 11743, "\uc9c4\ubcf4\uc2e0": 17698, "\ub2e8\ub828": 15793, "\uc57c\ucc44": 9498, "\ub530\ub978\ub2e4": 15441, "\uc7a5\ub3c4": 19033, "\ubc15\uc5f0\ucc28": 24551, "\uadf8\ub807": 3649, "\uc54c\ub9f9\uc774": 27759, "##\uc5d0\uc11c": 27135, "\uc790\ucf13": 30747, "\uc545\ud589": 29928, "\uc2e4\ub9ac\ucf58\ubc38\ub9ac": 18111, "\ub9bc\ud504": 19866, "\ubcf4\uc870": 5491, "\ub9ac\ubd80": 26789, "##ont": 21934, "\uad6d\ubc29": 5227, "139": 15762, "\ucc44\uc2dd": 20119, "\uccab\ubc1c": 20618, "\uc7ac\uc815\ubd80": 8139, "\ucc29\uc6a9\uac10": 27948, "\uc9c0\ud61c": 6626, "\ud480\ubc2d": 26372, "\uc720": 1490, "\uc9c4\ud589\ud560": 12150, "\uaf34\ucc0c": 14813, "\ucd09": 1664, "\ub2e8\uc8c4": 30735, "\uc811\ucc29\uc81c": 31493, "\ud30c\uc77c": 8186, "\ud480": 1872, "\uc2b9\uc120": 19651, "\uc9c0\uc694": 4282, "die": 28908, "\uc218\uc1a1": 9997, "\uae09\uae09": 14969, "\uc774\uaca8\uc57c": 25281, "\ud654\uc0b0": 13816, "\ud78c\ud2b8": 21915, "##\ud6c8": 2034, "\ubb34\ud328": 23028, "\ud504\ub808\uc2a4": 12028, "\uc815\uc911": 13624, "\uc0ac\uad00": 12084, "\uacf5\uc6d0": 4599, "\uace0\uc0ac\ud558\uace0": 26122, "\ub2ed\uac08\ube44": 20009, "\ucca8\ub2e8": 5832, "\ubc18\uc9dd": 8727, "\uc0c1\ub2e8": 13870, "\ucff5": 1742, "\ub514\ubc14\uc774\uc2a4": 23032, "\ub178\ub9b0\ub2e4": 21813, "##\uacf6": 3253, "\uc0bc\ucf1c": 26264, "##l": 2010, "[unused329]": 31829, "\uc218\ucd9c\uc561": 17430, "\ub54c\ub54c\ub85c": 13789, "\uc9c0\uc815": 4753, "\uad50\ucc28": 9131, "\uc18c\ud504\ud2b8": 5819, "##\uae40\uc5c6\uc774": 12219, "\ud1b5\uace1": 19750, "\uc600\uc73c\ubbc0\ub85c": 21748, "\ub9ac\ubc14": 13005, "\u8eca": 503, "\uc131\uae30": 15394, "\ubd80\uc9c8": 24882, "\ud30c\ub780": 9378, "\uc5d0\uc2a4\ud30c\ub0d0": 28017, "\uc544\ub514": 22340, "\uc804\ud658\uc0ac\ucc44": 31288, "Pa": 20278, "\u5409": 280, "\uacf5\uc870": 10161, "\ub314": 829, "\uc6b4\uc804\uc790": 7688, "##\uc790\uc2dd": 24727, "\ube44\uc6b0": 14935, "\uc7ac\ud611": 17592, "\ubd80\ud558": 7904, "\uc885\ub7c9": 29791, "\uc870\uacc4": 15102, "\ub300\uc751\ucc45": 18850, "\ubc00\ub9b0": 18964, "\uad00\ucc30\uc790": 26771, "\ubc18\ub860": 13815, "\ubcd1\uc6b0": 17860, "##\u00d7": 2930, "##\ud22c\uc2a4": 12671, "\ucc45\uc784\uc838\uc57c": 20671, "01": 8671, "\uac15\uacbd\ud30c": 23013, "\uc655\uad81": 19601, "\ub0b8\ub4dc": 22204, "\uc694\uad6c": 3917, "\ub354\ub7fd": 15547, "\uc501\uc4f8": 14242, "\ud0d0\ud5d8": 14013, "\uc77c\ucd9c": 19829, "\uc608\uc120\uc804": 30423, "AFC": 20006, "\uae4a": 652, "\uc911\uc704": 12910, "\ubcf8\ub2e4\uace0": 24386, "##\ub2c8\uc5c4": 22914, "\uc0b0\ubb38": 16342, "\ub09a": 719, "\ubbf8\uc544": 18304, "\uadf8\uae4c": 9607, "\ud0c0\uc785": 8800, "\uc720\ub77c": 16245, "\uc778\uc0ac\uc774\ub4dc": 29444, "\ub099\ud0dc": 17365, "\uc9c0\ud718\uad00": 16048, "\uc2e0\ub77c\ud638\ud154": 27483, "MBC": 5633, "\uc62c\ub9ac\ube0c": 11962, "\ub3c4\uc778": 25334, "\uc6d0\ubd80": 31306, "\uc811\ud574": 22789, "\uc804\ubb38\uc9c0": 20326, "\ud558\uc5bc\ube48": 29030, "\uc0dd\ubb3c\ud559": 11903, "1930": 11717, "\uc560\ud50c": 5686, "\ub2f9\uacbc": 30271, "\uac10\ub3d9": 5869, "\uadf8\uacf3": 5345, "\uc7a5\ub974": 7100, "\uc798\ub790": 28683, "\uba85\uc138": 21368, "\uc2dd\ubb3c": 6330, "\ud574\uc9c0\uc9c0": 29497, "\ub3d9\uae30": 5329, "\uac00\ubcc0": 24439, "91": 7907, "\ud3fc\ud398\uc774": 17469, "min": 25112, "\uba3c\uc9c0": 7801, "\ubcc0\ub3d9\uc131": 17871, "\uc5b4\uc7a5": 26206, "Gu": 23505, "\ubc18\ucc2c": 9056, "\ub85c\uc2a4\ucfe8": 15375, "\uc744\uc9c0\ub77c\ub3c4": 26430, "\uc624\uc194": 25280, "\uba85\ud655\ud788": 10800, "\uae40\uc0c1\uc870": 30876, "\uc774\ud61c": 18496, "\uc0ac\ub77c\uc9c4": 9524, "\uc870\uc9c1\ub825": 17842, "\ubd09\uc548": 30872, "##\uc694\uc77c": 4890, "##ournal": 17483, "##\u2800": 2860, "\uafc8\ud2c0": 16485, "\uc6d0\ub798": 5057, "Park": 31040, "\ub807": 973, "\ub9d8\ub300\ub85c": 23737, "\ubcf4\ub9ac": 9427, "\uc190\uc2e4": 5817, "\uad00\uc601": 22884, "\ub3cb\ubcf4\uc778\ub2e4": 19495, "\uc9c1\uae09": 16600, "\uc5f0\uc7ac": 12944, "\ud61c\ud654": 30337, "##\ud14c\uc77c": 10866, "\ubed4\ud788": 24630, "\uc190\ud765\ubbfc": 11251, "\uc5f0\ub840": 21844, "\uadf8\uc73d": 24484, "\ub2ec\ub77c\uc9c4\ub2e4": 12462, "##\ud64d\ucca0": 21653, "\uc88c\uc911": 29625, "\ub4e4\ub978": 29134, "\ub9c8\ub828": 3905, "\uc368\uc11c": 9654, "\ub450\ubd80": 10813, "\uad6d\uc720": 14540, "\ubcf4\uc88c": 8541, "\uc5ec\ud589": 4062, "188": 9936, "\ubc95\ub960\uc548": 20738, "\ub46c": 871, "\uae30\uaebc\uc774": 11985, "\uc5ec\ud589\uc0ac": 12293, "305": 30597, "##\ub180": 2867, "\uba48": 1062, "\uc801\uc870": 28569, "##DA": 12366, "\u5236": 261, "\uba54\uc6e0": 31009, "##\uc0c8\ub07c": 27121, "Ch": 7044, "[unused297]": 31797, "\uc81c\uc0ac\uc7a5": 29458, "\uc138\uacc4\uc0ac": 18454, "##\uc218\uc0b0\ubd80": 15666, "\uc790\uae08": 4248, "\uc18c\ub7c9": 17989, "\ud1a0\uae30": 21322, "\ud14c\ub77c\uc2a4": 15573, "\uc790\uc11c": 16523, "\ud669\uae30": 20656, "\ud53c\ub9ac": 20601, "\uacbd\uc81c\ud559": 8949, "\uce58\ub8cc\uc81c": 10842, "\ub77c\uae30": 9279, "\ucd5c\uc9c4": 15239, "\ubaa8\uac74": 16978, "##\ubaa8\ub2dd": 23939, "\ubc31\ub0a8\uc900": 26762, "Sc": 13468, "\uc9c0\uc6d0\uc790": 10502, "##own": 21331, "\ubc29\uc5ed": 12133, "##\ub180\ub9bc": 21493, "\uc0b0\ub3d9": 19995, "\uae40\ubcf4": 17264, "\ub300\ub959": 7606, "\ube5a": 1194, "\uc9c0\ub4dc\ub798\uace4": 30127, "\uc804\ucd08": 27626, "\ubcc0\ud55c\ub2e4": 19544, "\uc21c\uc9c4": 15443, "\uc2e4\uc9c0": 22528, "##ism": 10769, "\uc88c\uc7a5": 26918, "##\ub6f0\uae30": 26829, "\ub298\uc5b4\ub193": 12775, "\uc5ec\uc655": 9196, "\ube44\uc11c\uad00": 7821, "AFP": 24495, "\ucf00\uc774": 5157, "\ubb3c\uacb0": 10061, "\uacfc\uac70\uc0ac": 17681, "\uc0ac\ud68c\uad00": 19726, "##\ub728": 2751, "\ube68\uc544\ub4e4": 22252, "IF": 20589, "\ub2e4\ud589": 5777, "\uc720\uc5b8": 12891, "\ub458\ub7ec\ubcf8": 26488, "\uc6d0\uc720": 8218, "\uc774\uc815\ud45c": 20542, "\ubc1c\uac78\uc74c": 10103, "\uc815\uce58\uac00": 16980, "103": 13250, "\ud68c\uac1c": 22002, "\ud55c\ub9c8\ub514": 6549, "\uc2e4\ubb3c": 11558, "##ological": 26923, "##\ub178\ub3d9": 18699, "##\uc8fc": 2223, "\ub3c5\ub9bd\uad70": 26800, "\uad6c\uc774": 11680, "\uc5f0\uad6c\uc2e4": 15541, "\uad6d\ubb38\ud559": 23920, "\ud1b5\ud654": 5071, "\ud65c\uc6a9": 3987, "\ud639\uc5ec": 27502, "\ub4e4\uc778": 18631, "\uc378": 1349, "\uc81c\uc790\ub9ac": 11798, "\ud558\ub9c8": 15434, "\ub5a8\uce58": 18619, "\uc57c\uc2ec": 12036, "\ub7b5": 962, "\uc544\uc720": 13097, "\ub0b4\uc5f0": 29713, "\uc790\uc871": 20493, "\uc608\uba58": 25384, "\uc774\uc131\uacc4": 20026, "\uc8fc\uc81c": 4551, "\uae0d": 644, "##\ub2d0\ub77c": 17776, "##\ub77c\uc2a4": 5822, "\uae30\uc6b8\uc778": 27836, "\uc18d\uc5ec": 18463, "##iam": 18686, "[unused129]": 31629, "\ud0dc\ub9cc": 31171, "CV": 31373, "\ucd94\uae30\uacbd": 15847, "\uc131\ub3d9": 12839, "##\ub9c9": 2395, "\uc815\uc120": 11915, "\ud3b8\uc548\ud788": 25900, "\uac71\uc815\uac70\ub9ac": 29665, "\uac00\uc871": 3937, "\ubd80\uc704\uc6d0\uc7a5": 13459, "\uc694\uae08\uc81c": 10841, "\ubd88\ub824": 14434, "##\ub9ac\uc0ac": 24168, "\uc9c4\uc6b0": 20751, "\uac70\ub838": 22545, "\ubd88\uad50": 6457, "\ud3b8\uce58": 29578, "\uc0c1\uc778": 6390, "\ubc00\ub808\ub2c8\uc5c4": 26570, "\ucf54\ub05d": 28790, "\uccb4\uaca9": 18456, "De": 13954, "##HO": 16229, "\uc77c\ubcc0": 25446, "\ud654\uace0": 20029, "\ud560\uba38\ub2c8": 5256, "\uc560\ub364": 23938, "cont": 23591, "sk": 31344, "\ud574\uba85": 6750, "\uccb4\ub0a9": 12687, "\ucc0d\ud788": 27485, "\ub208\ub9e4": 20693, "\ubb34\uc5c7": 3890, "\uc7a5\uc0c1": 26720, "\ucc28\ub4f1": 15032, "\ub3d7": 855, "##\ud3f4\ub9ac\uc624": 10326, "##\ub290": 2922, "\uad50\uc721\uc790": 20652, "\ucee8\ub514\uc158": 10793, "\uacc4\ubabd\uc8fc\uc758": 28615, "##\ud33d": 3144, "\uc9c0\ub098\uce58": 6349, "\ubd88\ud604": 25123, "\ud1a0\ub9ac": 13312, "\uc7ac\uac74\ucd95": 8091, "\uac00\uc7a5\uc790\ub9ac": 19193, "\uc9c0\ucf1c\ubd10\uc57c": 16650, "##\ub4dc\ub808": 12674, "\ubd84\uc7a5": 17914, "\ub77c\uace0": 3609, "##\uc0ac\uc704": 28311, "\uc0b4\ub77c": 26554, "\ubc29\uba74": 12239, "\uc5d0\uba54": 31388, "\uc553": 1382, "\ucf5c\ub77c\uac90": 18532, "\uc9c0\ubd95": 9043, "\uae30\uc6c3": 23163, "\uace0\ub9d9": 6659, "\ubab0\ub798": 8905, "\ubc14\ube60\uc11c": 23855, "##\uc0c1\ubd80": 12298, "\ubc1c\uc6d0": 27323, "\ubaa8\uc695": 11742, "\uc815\uc721": 23133, "\uc804\ub3d9\ucc28": 23294, "\uc8fc\uc548\uc810": 26391, "\ubd84\uac04": 24929, "\uc640": 1453, "\ub0ad\uc1a1": 26515, "\uc774\ub904": 4310, "\uc57c\uc790": 26248, "\uc774\ub798\uc11c": 16317, "\uc774\uc11d": 11159, "\ud6e4": 1949, "\uccb4\uacb0": 5186, "\uc2ac\ub77c": 21068, "##\u314b\u314b\u314b\u314b\u314b\u314b\u314b\u314b": 14502, "\uad6c\ubd84": 5313, "##\uc158": 2197, "##oss": 21380, "\uc131\uc0c1": 31035, "\uc6b0\uc2b5": 17270, "\ubc15\uc815\ud76c": 8316, "\uc218\uad70": 15560, "\ud5c8\uc57d": 19244, "\uc131\ubb38": 16652, "\ub118\uc5b4\uc624": 25316, "\uc778\ud615": 8439, "\uc774\uc2b9\uae30": 25208, "\ud578\ub4dc\ubcfc": 21583, "\uc704\uc6d0\uc7a5": 4120, "\ubd81\uce21": 10023, "\uc218\uc5c6\uc774": 12816, "\ub5a0\uc624\ub978\ub2e4": 17465, "\ub52a": 896, "\ud658\uc0b0": 13499, "##\ub0b4": 2369, "\uc138\uc6a9": 24224, "\ub04a\uaca8": 29769, "\ub838": 988, "\uc774\uc6a9": 3774, "\ub0b4\ubab0": 14125, "\uac00\ud560": 19701, "\uc815\ub840": 12758, "\ucde8\ud56d": 16573, "\ubc8c\uc368": 5442, "\ucee5": 1711, "##\ub9f9\uc774": 19876, "\uc720\ud615": 5563, "\ubc14\ub97c": 25471, "##\uc2ac": 2161, "FA": 8891, "\ubc18\ub527": 28630, "\ucc28\ud6c4": 25371, "\uc218\uce58\uc2ec": 23491, "##\ucf5c\ub9ac": 25543, "petstagram": 31231, "\ud3ec\ud2f0": 21163, "\u6708": 386, "\ub69c": 922, "\ub300\ub9c8\ub3c4": 25409, "\uc0ac\uc774\ud074": 12545, "##\ub7ad\uc774": 22858, "[unused418]": 31918, "\ub18d\ub3c4": 10104, "##\ucd98": 2363, "\uac04\uc811": 7166, "\u5951": 310, "##76": 24254, "\ud6c4\uc1a1": 30066, "\uc724\ud65c\uc720": 29063, "##\uc774\ub3d9": 22728, "##\ubc84": 2264, "##ug": 13721, "\uc131\ub2f9": 9693, "\uae30\ub2e4\ub780": 29947, "\ubb38\ud131": 13700, "\uc548\uc911": 14746, "\uae30\ub098": 25883, "\uc6b0\uae30": 21282, "\ub5a8\uc5b4\ub728\ub824": 27520, "\uc5d0\ub108\uc9c0\uc6d0": 23071, "\uc5ed\uc801": 25445, "\uc624\uc5f4": 28057, "\uc3d8\ub098\ud0c0": 15794, "\uc871\ud788": 26628, "\uba85\ubd84": 8270, "\ub54c": 904, "\uac74\uc7a5": 27977, "\uc624\ub9ac\uc628": 12598, "##ext": 23162, "\ud68c\uad00": 7581, "\uc778\uce6d": 26380, "\uc218\ub77d": 16418, "\ub9e4\ub044\ub7ec\uc6b4": 30089, "\uae00\uc384\uc694": 15817, "\ud1f4\uce58": 18005, "\uace0\uc878": 17062, "\uc2a4\ucf5c": 26530, "\uba54\uc774\ud06c": 7782, "\ubc15\uc601\uc120": 19845, "\uc625\uc218\uc218": 11905, "##\ud574\uc84c": 29919, "\uc218\uc2ed": 6106, "\uc774\uc6d0": 10094, "\ub514\ubc14": 17479, "\uc138": 1269, "\uc0c1\uccb4": 17561, "\ubaa8\uc74c": 16544, "\ud0c0\uaca9": 6574, "\uac15\uc815": 10204, "##\uce94": 2950, "##\u2160": 3239, "\ubc84\ube14": 13937, "\uc815\ub7c9": 24994, "\ud61c\uc548": 26082, "\ud6d7": 1948, "\uc624\ub77d\uac00\ub77d": 21976, "\ube44\ub840": 7758, "soc": 21974, "##\uc11c\ube44\uc2a4": 28930, "\ucd5c\uace0\uc810": 24501, "\uc545\uc6a9": 13322, "\ub839\ub3c4": 30263, "\uac04\ub514": 17220, "\ubc00\ub77c\ub178": 21480, "##\uc138\ud3ec": 9200, "\uac01\uc2dc": 31498, "\ub780": 944, "\uc6d0\ud6a8": 18851, "[unused49]": 31549, "\uad76\uc8fc": 14718, "\uc37d": 1352, "\uba40\ud2f0\ubbf8\ub514\uc5b4": 16585, "\ubb8c": 1102, "\ub36e\uac1c": 24121, "##\ub9b0": 2466, "\uc2f8\uc6e0": 15222, "\uc218\ub2c8": 27355, "##\uacbc": 2484, "\uae30\uc778": 11126, "\ub204\ub824": 30832, "\uaddc\uaca9": 13738, "\uc678\uc6b0": 14191, "\ud55c\ub2e4\ub4e0\uac00": 28380, "\uc2e0\ud654": 6089, "\uc6b8\ub838": 13650, "\uc815\ud615\uc678\uacfc": 28783, "\ub17c\uc220": 8206, "\ub2e4\ub124": 16836, "\uccad\uc18c": 4425, "##\ub080": 3429, "\ubd80\uac00\uac00\uce58": 14795, "\uc218\uc2ec": 16842, "\ud669\uc0ac": 14392, "\ucd5c\uc18c\ud55c": 6820, "\uc778\ub2e4": 19519, "\uac10\uc5fc\ubcd1": 22989, "\ub6f0\uc5b4\ub4dc": 26478, "\uc2dc\ucee4": 21119, "\uac1c\ucd5c\uc9c0": 22312, "\uc77c\ub2f9": 12745, "\uae4a\uc774": 5746, "\ud5c8\ud5c8": 14225, "\uc7a0\ubcf5": 19889, "\ub9cc\ub144": 18137, "##\uad00\ub9ac": 7604, "\ub358\uc9c4": 11304, "\uacbd\uace0": 6151, "\uc9d1\uc9d1": 25029, "\uc9c4\uacfc": 28367, "\ub2f9\ub860": 16443, "##\ub9ac\uc624": 5944, "\uc2dc\uac00": 8619, "\uc544\uc26c\uc6b4": 10731, "\ub300\uc791": 18299, "\ud55c\uc758\uc0ac": 23732, "\uc544\ubb34\uac83": 6321, "\uc561\uccb4": 14306, "\uacf1\ucc3d": 14979, "\ud314\ub2e4\ub9ac": 24522, "\ubb34\ub108\ub728\ub9ac": 19355, "\ud2c8\uc0c8": 12915, "\uba38\ubb3c": 5630, "##\uce58\uae30": 10547, "\ubaa8\ub85c": 16785, "\uad00\ub9ac\uc9c1": 30948, "\uc2ac\ud504": 13079, "\uba4b\uc9c4": 7448, "\uc775\uc2a4\ud504\ub808\uc2a4": 24284, "\ub2e4\uad6c": 17620, "\uace0\ucde8": 17607, "\ud750\ub974": 6134, "\uba54\uc18c": 29847, "\ud569\ucc3d": 10044, "\uc218\uc6d4": 12322, "\uc1fc\ud551": 4887, "\ub294\uac78": 27373, "\uc874": 1554, "\uc218\ubb35": 31358, "##\uc784\uc0c8": 19520, "\uc774\ub8e9": 12215, "\uc2a4\ud0c0\ud0b9": 23317, "\uc544\uc0ac\ud788": 17829, "##\ud14c\ud06c": 8055, "##\ud68d": 2808, "\uc2ec\uac01": 4927, "\uc5f0\ud76c": 16146, "\uc120\ud615": 23072, "##mp": 13632, "\ud61c\ud0dd": 5007, "\uc2dc\uc885": 13962, "\ube44\uc911": 4946, "##\ubc30\uc0c1": 19481, "\ubcd1\uc0b4": 30680, "\ub9ac\ud504\ud2b8": 22078, "\uad50\uc778": 16380, "\ubc18\ubb38": 12558, "\uc815\ub2f9": 4451, "\ub5a0\uc62c\ub824": 20209, "\uad8c\uc7a5": 12308, "\uc57c\uad6c\ub2e8": 26687, "##\u0442": 2541, "\uc62c\ub824\uc57c": 21929, "\ub9c8\ub204": 15101, "\uac00\uc84c": 5989, "\uc598\uae30": 3880, "\uc2a4\ud0e0\ub9ac": 21522, "\uc2dc\uc624": 25048, "\uc694\ud55c": 11986, "\uc624\uac70": 27946, "##\ub738": 3217, "\uae30\uccb4": 18020, "\ub192\uc784": 31208, "##\uc060": 3216, "\ubc8c\uc77c": 13804, "\ud648\ud398\uc774\uc9c0": 5299, "\ud655\uc2e0": 6483, "\ucee8\ubca4\uc158": 11830, "\uadf8\ub7ac\uc5c8": 23676, "\ub3d9\uc694": 12233, "##ou": 5060, "\uc2e0\ub839": 24129, "##\uc138\ub300": 6188, "##25": 19364, "\u9762": 532, "\uc18c\ub9dd": 9444, "\uc601\ubb38\ud559": 29872, "##\uc5f4\ucc28": 25761, "##\ubc15\uc2a4": 13473, "\ub79c\ub4dc\ub9c8\ud06c": 15297, "\uc138\ub2e8": 12879, "##\ub77c\ube44\uc544": 14131, "\uad50\uc2e4": 6581, "\ub298\uc5b4\ub0ac": 7983, "\ubab0\ub77c\ub3c4": 10275, "\ud788\ud788": 20826, "\uae68\uc5b4\ub098": 15217, "\ucd94\ucc9c": 4635, "\uae40\ub9cc": 22136, "[unused201]": 31701, "\ube44\uc560": 30286, "##B": 2206, "\ud615\ubc8c": 15755, "\uc720\ud2f8\ub9ac\ud2f0": 22802, "\ubd80\uc720": 10429, "##\ub461": 3397, "\uac70\uae30": 4370, "\ud30c\ub77c\uc624": 29723, "##\uc815\ubcf4": 19861, "\ucf69\ub098\ubb3c": 15133, "\uc720\uae30\ub18d": 11835, "\ucda9\ubd84\ud788": 5050, "\uc2ed\uc77c": 26696, "\ub178\uc2a4\ud398\uc774\uc2a4": 29268, "\uadf8\ub791": 15732, "\uc218\uac11": 26805, "##\uacf5\uc11c": 18460, "\uc7ac\uc5f0": 17807, "\uc5b4\ub560": 14756, "\ud559\ud68c": 7160, "##\uc9c0\uc5b4": 5806, "\ubc1c\uc790\ucde8": 23402, "\uc774\uccad\uc6a9": 17450, "##\ud61c\uc815": 30796, "\ub2e4\uac00\uc640": 16058, "##ate": 9230, "\ubc30\uc6e0": 9095, "\uc7a1\uc544\uac00": 22888, "##\uad00\ub9ac\uc704\uc6d0\ud68c": 17050, "##ent": 5248, "\ub12c": 755, "\ub9de\ucd94": 5739, "\uc5b4\uc81c": 5538, "##\ud480": 2461, "NP": 18931, "KA": 10876, "##\ub85c\uc774": 17531, "\uccad\ud558": 16014, "\ubd81\ubd80": 7641, "##au": 21230, "\ub530\ub978": 4340, "\uc5f0\uccb4": 11839, "##\ub098\uac14": 14886, "\ud30c\ub974": 17218, "\uac10\uc0b0": 25759, "\uc624\ub791": 20546, "\ud588\uc5b4\uc694": 19079, "\uc123\ubd80": 25862, "\ud478\uc9d0": 12252, "\ud765\uad6d": 10263, "\ucc28\uac11": 14428, "\u6b7b": 406, "##\ubd80\ud328": 18785, "\ud559\ud30c": 16059, "\ub124\uc774\ubc84": 8111, "\ud558\ub4dc": 9370, "##\uc21c\ud658": 13673, "##\ud0d3": 3508, "\uc11c\ubcd1": 21057, "\u7528": 434, "\ud3ed\ud3ec": 12572, "\uacf0\ud0d5": 29225, "\uac84": 576, "\uadf8\uac70": 5139, "##ern": 14591, "\ub9ac\uc870": 7537, "\ub07c\ub9ac": 6511, "\u61b2": 360, "##\ucf54\ube44\uce58": 24538, "\ub300\ub9ac\uc810": 11874, "\uc704\uc815": 30809, "\uae40\uc6b0": 14320, "\uad00\uad11\ubc84\uc2a4": 29898, "\ub9de\uc774": 6644, "##ion": 7622, "\uc77c\uad11": 27813, "[unused19]": 31519, "\ud0a4\uc6cc": 5972, "##\ucc9c\uad70": 12288, "\uc81c\ube75": 21696, "\uc2e0\ubc1c": 7420, "##\uc774\ube0c": 7467, "\uad6d\ubc29\uc704": 29743, "\ub3c4\uae68\ube44": 14549, "\ubc14\uafbc": 9506, "\ub2e8\uae30": 6010, "\uc870\uc9d0": 10684, "##\uccd0\uc11c": 11049, "\uadc0\uc2e0": 9979, "\uc218\uc775\uae08": 14079, "KS": 16071, "\ud608\uc548": 28329, "\uc73c\uc73c": 27728, "\uc11c\uac70": 15333, "\uc57c\ubb34\uc9c0": 28118, "\uc5fc\ub824": 8461, "##eek": 26729, "##\uc606": 2967, "\uc5b4\ud68d": 22221, "\uc601\ud654": 3771, "##ri": 5660, "\ub9ac\ud2ac": 17956, "\ubbfc\ubcc0": 27575, "\uacb0\ub9d0": 13489, "\ubc29\uccad": 19938, "850": 20467, "\uc77c\uc73c\ud0ac": 12379, "\ub150": 762, "\uc815\ud61c": 23392, "\uff4d": 1991, "\uc2dc\ubca0\ub9ac\uc544": 17869, "\uac04\ud638\ud559": 29891, "\uc624\uc624": 22905, "\ubcd1\uc790": 20284, "\uce7c\ub0a0": 16337, "\ucc9c\uc218": 29948, "##ute": 20669, "##\ubcf4\ud5d8": 12349, "\uc7a5\uc2dc": 30579, "##FA": 9294, "\uc2e0\uccad\uc790": 15272, "\ud22c\uc790\ucc98": 21735, "\uc8fc\uc758\ubcf4": 17939, "\ub05d\ub9c8": 28222, "For": 16919, "\ud6a8": 1942, "\uc1a1\uc601\uae38": 23925, "\uc5fc\uc804": 31359, "\ubcf5\uc2f1": 18206, "\uad74\ube44": 23065, "\uc2dc\uc9d1": 7936, "\uc625\uc0c1": 12338, "\ucc99\ud558": 16168, "\ud504\ub85c\uc138\uc11c": 21952, "SNS": 6691, "\uae30\ubc1c": 18792, "\uc774\ub9cc\ud07c": 21605, "\ud604\uc778": 30765, "1934": 23398, "\uc54c": 1381, "\ubc14\ub298": 13121, "\uc0b4\uc544": 4996, "\uc26c\uc6e0": 24589, "\ud558\uc6b0\uc2a4": 6634, "\ubaa8\ub978\ub2e4": 5322, "\uc804\ub150": 12554, "\ubc8c\uc5b4\ub4e4\uc778": 24871, "750": 15453, "\uc678\uc591": 22993, "\ub2e4\ub8ec": 8423, "\uc218\uc758": 20719, "\uc21c\uc751": 18071, "\ud50c\ub798\uce74\ub4dc": 26566, "\uc131\uc9c4": 29075, "\uae40\uae30": 8236, "\ub9d0\ub144": 21409, "\u4f5b": 234, "\ucc28\uc6d0": 4540, "\uc624\ud53c\uc2a4": 7415, "\uac10\uc18c\uc138": 18473, "WM": 26120, "\uac01\uc9c8": 13928, "\ucd94\ub300": 15305, "##\ud578": 3251, "\uc7a5\uc218": 7304, "\ud574\ub9d1": 28224, "\uc548\ubd80": 19266, "##\uc9c0\ub9ac\uc544": 18738, "\ud63c\uc778": 10276, "\uc2ec\uc7a5": 6036, "\ub158": 765, "##\ubaa8\ub85c": 20776, "##one": 11814, "\uc18c\uc720\uc790": 9280, "\uc0e4\uc6cc": 11273, "\ub300\uac70": 7312, "\uae40\uad00\uc9c4": 29525, "##orld": 12858, "\ud544\ub9bd\uc2a4": 22529, "\uac1c\uad6c\ub9ac": 13761, "\uc9c0\uc0c8": 29799, "##\uac78\uc74c": 8495, "\ub0b4\ubb34": 21164, "\uccab\uc120": 26151, "\u306e": 180, "##\ucca0\ub3c4": 13784, "##ary": 11247, "\uc218\uc694\uc790": 11416, "inst": 9632, "\ucd5c\uc7ac": 14702, "\u9ad4": 537, "\ub300\ub193\uace0": 22516, "\uc9c0\ubc30\uce35": 28299, "\uac1c\uc6b4": 19331, "\uac80": 573, "\uce68\ucc29": 12050, "\uc804\uc18c": 30462, "\ub2f9\uaca8": 17683, "\ud574\uc778\uc0ac": 29671, "\ucc3c": 1640, "\uc0ac\uc774\ubc84": 7414, "\uc0ac\uc2e0": 12080, "\uc6a9\uc801": 17686, "\uc790\ub128": 27395, "\ucd5c\uc0c1\uc704": 15870, "##\uba70\uc2dc": 18060, "##\uba58\uc2a4": 27374, "\uac04\ud638": 7578, "\uc6a9\ud638": 30219, "\uc6d0\uc8fc\uc2dc": 27197, "\ub4f1\uc2ec": 21919, "\uce74\uc9c0\ub178": 12126, "\uc815\ub9bd": 10205, "\uad11\uc0b0": 10328, "[unused450]": 31950, "##\ud0b4": 3077, "##\ubc34": 3275, "\uc774\ud654\uc5ec\ub300": 13983, "Techn": 23158, "\ub808\uae45\uc2a4": 31327, "\ub530\ub77c\uac08": 25540, "##\ub85c\ub4dc": 8032, "\ubd84\ubcc4": 16592, "\uc548\uc591": 7870, "\ubb34\ub2e8": 11965, "\uc800\ucd9c\uc0b0": 13248, "\ucd08\ucf54\ud30c\uc774": 31198, "\ubd80\ud3c9\uad6c": 23803, "\uacf5\ub9bd": 13586, "\uc218\uc784": 21855, "\uc0b4\uba70\uc2dc": 26217, "\uacf5\uc11d": 19637, "\ub194": 774, "\ucd08\ubcf4": 10703, "\uae40\uc7a5": 10406, "\uad50\ubd80\uae08": 22375, "##\ud0c0\uace0": 25713, "\ub2e4\ub77d": 22035, "\uc774\ubcc0": 18464, "\ubcc0\uc2e0": 7112, "\uc554\ubcbd": 21912, "##\ub41c": 2897, "\uae30\ub2e8": 26797, "\uac00\uc7ac": 29964, "\ub3c4\uc694\ud0c0": 10525, "##\uc815": 2287, "\uace1": 595, "\uba38\ubb38": 21344, "\u554f": 290, "\uc62e\uae34\ub2e4": 30991, "\uac1c\ubc1c": 3720, "##\uae5d": 3361, "\uc6d0\uc2dc": 11397, "##\uad6c\ub984": 17844, "\ub290\uaef4\uc838": 24472, "##\ub370\ub974": 25537, "\ud558\ub098\uac19\uc774": 21279, "##\uc6cc\ud06c": 5344, "\ubb34\uc791\uc815": 14854, "\ub0ad\uc790": 28032, "\uc5f0\ub9e4": 27028, "\uc5ec\uc6b0": 12784, "\uac15\ubbfc\ud638": 24191, "##IT": 12005, "\uc870\uc778": 15543, "\uc2b5": 1322, "\uacf5\ubb38\uc11c": 28382, "\uc5c4\uc120": 22497, "Dis": 22889, "\uc778\ub0b4\uc2ec": 18146, "##\uc0e4\uc624": 23157, "\uc6b8\ub989": 11737, "\ubcc0\uc774": 19305, "\ucd9c\uc810": 26699, "\uc6d0\uc804": 5731, "\ud574\uc57c\uc9c0": 10159, "\ubd88\uc774": 20249, "Oxford": 28917, "\ub2ec\ub77c\uc11c": 24488, "\ub9d0\ucc28": 31332, "\ud569\uc131": 8976, "\ub625": 921, "\ucd9c\ud56d": 20901, "\uc9c0\uc9c0": 4315, "\uadf8\ub3d9\uc548": 4532, "\uadf8\ub798\uc694": 6496, "\uc800\ud558": 8693, "\uc0dd\uc0b0\ub7c9": 9189, "\ub0b4\uc6a9": 3800, "\ubc99": 1146, "Bus": 20723, "\uae38\uac70\ub9ac": 11998, "\uc774\uadfc\ud638": 24013, "##rip": 26343, "##\ud4e8": 2934, "##\uc81c\ub974": 30360, "##les": 15546, "##\uc0ac\uae30": 20807, "\uc885\uc2dc": 7083, "##\ud1b5\uc2e0": 26626, "[unused326]": 31826, "\ub85c\ube0c": 23880, "\ud589\ubc29\ubd88\uba85": 30386, "\uc11c\uc790": 30261, "\uac00\ud1a8\ub9ad": 9423, "\ub370\ubbf8": 29879, "\ub118\uc5b4\uc84c": 29659, "\uc18c\ub4dd": 4429, "\ub4dd\uc810": 6300, "\ub125\uc13c": 8368, "\ubb58\uae4c": 16273, "\ubd80\uc7ac": 9100, "\ubaa8\ubc29": 11280, "\uc624\ub77d\uc2e4": 30790, "\uc0ac\uc624": 28543, "\ubc1b\uc544\ub4e4\uc77c": 9907, "\uc6d0\ub85c": 11554, "\ud1a0\ub07c": 8981, "CMA": 23282, "##\uc308": 2833, "\ubcd1\ud3d0": 28717, "##um": 6306, "are": 20098, "\ud0dc\uc218": 25831, "\uc77c\uba85": 11889, "164": 16106, "\uc0ac\uc784": 13563, "\ubc14\uc6b8": 12237, "\uacc4\ud30c": 12251, "\uc5ec\uc2e4\ud788": 19887, "##RA": 11881, "\uc8fc\uace0": 8629, "##\uc9d5\uc5b4": 11630, "\ub080": 714, "##\uc2dc\ube0c": 25809, "##\ub098\uadc0": 23793, "##atch": 21670, "\uac8c\ub2e4\uac00": 5560, "##\ub9e4\ub3c4": 13785, "\uc790\ub784": 23759, "\uc774\uc6b0": 18847, "\uc57c": 1396, "\ub9c8\ucc28": 12140, "\ud5cc\uc7ac": 10316, "\ub3c4\uc774": 31262, "\ud544\uc801": 27991, "\ubc34\ub4dc": 7503, "\ud0d0\uc815": 21042, "\ubc8c\ub5a1": 14135, "\ubb3c\ub7ec": 5724, "\uc774\ubc14\uc9c0": 15554, "\ub2e8\uc21c\ud788": 6044, "\ucc38\ubaa8": 9610, "\ube44\ud3c9": 7513, "\uad6c\uacbd": 7139, "##\ud14c\ub791": 11916, "\uc2dd\ub2e8": 7539, "[unused176]": 31676, "##\ubc38\ub9ac": 17226, "\ubaa8\uc2e0": 21962, "\uae30\uc0c9": 13461, "\uc2a4\ud2f8": 10587, "\uc9c0\ucf1c": 4580, "\ubd80\ub7fd": 14551, "\uc0b0\ud558": 7360, "\uacb9\uacb9": 29672, "\ucc45\uc784\uc790": 8254, "\uace0\uc131\uad70": 25442, "\ubcc4": 1156, "\ub098\ubb47\uc78e": 18155, "##\uc67c": 2581, "##\ucc10": 3287, "##\ub808\ub098": 13153, "#": 7, "\uc6d0\uac00": 7498, "\u338f": 203, "\uc624\ud1a0": 8272, "##\uafb9": 2849, "##\ub7ed": 2823, "\uc904\uc778\ub2e4": 27676, "\ubc18\uc8fd": 16530, "\ubc1d\ud78c": 6020, "\ubcc0\ud574": 10557, "##\uac70\ub9bc": 19560, "##\ub728\ub838": 8776, "\ucd5c\uace0\ub839": 26618, "\uc720\ud488": 26498, "\uc57c\ub987": 31407, "\uc870\uad6d": 8227, "\uacf5\uae09": 4223, "BI": 17222, "\ud569\ubcd1\uc99d": 17634, "\uac00\uc218": 5443, "\ubcf5\ubd80": 16508, "[unused124]": 31624, "\ubbf8\ubbf8": 11493, "\ub178\uc778": 4662, "\uc548\ub2ec": 27903, "\ud1b5": 1799, "\uc740\uc0ac": 19191, "\uce60\uace1\uad70": 24709, "\uae68\ub728\ub9ac": 23543, "\ub77c\uc624": 24826, "\ubcf4\uc0c1\uae08": 13972, "\ud0c0\uac1c": 18193, "##\ucc2c": 2166, "\u4ee5": 232, "##000": 3778, "\uc18c\ud640\ud788": 13515, "##\ub54c": 2775, "\ub09c\uc870": 30998, "\ubb35\uc9c1": 16161, "\ub178\ub7ab": 18983, "\ubc1c\ud6a8": 8053, "\ub35c\ucee5": 24946, "MA": 19791, "[unused282]": 31782, "\uc2f1\ud06c\ub300": 29657, "\ube68\ub798": 12412, "\uc5c4\ubc8c": 30210, "\ubbfc\uc790": 12179, "\ub2e8\ucd08": 23649, "\uac00\uc838\uc57c": 10538, "##\ub220": 3299, "\ubcf8\ud68c\uc758": 10859, "ICBM": 23375, "\uad6c\uc785": 5150, "\ub9ac\ub354\uc2ed": 6604, "\ud45c\ub958": 16777, "\uc804\ubb38\uc810": 10615, "\uc778\uc290\ub9b0": 19100, "\uc544\uce58": 19491, "##\uad6d": 2226, "\uc2a4\ud30c\uc774\ub354\ub9e8": 29493, "##\ub1cc": 2650, "##\uae30\uc5c5": 4371, "\uadf9\ucc2c": 17452, "\ud604\ucda9\uc6d0": 26559, "\ud0c0\ub2f9": 6997, "\ub300\ub2f4": 11838, "\ub2f9\ud639\uac10": 29745, "\ubcf8\ubd80": 4522, "\uc1c4\uc2e0": 9477, "\uba85\ub839": 5450, "\ud558\ucc28": 15921, "\ub7ff": 970, "\ub048\uae30": 19683, "\uc18c\uadf9\uc7a5": 21020, "\ubc14\ub098": 11810, "\ucc9c\uc5f0\uac00\uc2a4": 17905, "\uc62c\uc2a4\ud0c0": 14213, "\uad6c\uc57d": 16259, "\uace0\ub978": 14870, "\uc774\uc9c8": 14938, "\uc7a5\ub871": 28817, "\ub4f1\ub4f1": 9681, "\uc601\ud574": 27785, "\ucee4\uc1fc": 30886, "\u6b4c": 402, "\uc0c1\uc815": 9691, "\ud68c\uc120": 27703, "\uc758\ub8cc\uad00\uad11": 20442, "\ub9ac\uc5bc\ub9ac\uc998": 17579, "\uc554": 1383, "\ud558\ud488": 27224, "\ucbd4": 1623, "\uac00\ubcbc": 7180, "\uacf5\ub9e4": 24841, "\ub3d9\ubd81\uc544\uc2dc\uc544": 26274, "##\ubaa8\uc2b5": 11736, "\ub9de\uc130": 17893, "\ubcf5\uadc0": 6236, "yum": 29462, "\uc720\uc2dc\ubbfc": 20348, "\uc624\ub984\uc138": 19551, "\uc4f0\uc778": 14739, "\uc7ac\uc2ec": 13950, "\uc548\ub2e4\uace0": 22307, "\uc815\uc2e0\uc5c6\uc774": 17532, "\ud30c\ub3c4": 9241, "##\ub274\uc2a4": 17171, "##\uacf3": 2455, "\ub9bd\uc2a4\ud2f1": 16960, "##F": 2314, "\ud130\ub728\ub9b0": 24373, "\ud1a0\ub9c8\ud1a0": 10763, "\ubc18\ud5a5": 21422, "\uc5d0\ube44": 24211, "\ud658\uc0c1": 7264, "\uc5ec\ubcf4": 10852, "\ucc38\uace0\uc778": 19737, "\uac15\ud588": 14156, "\uc7ac\ud604": 8620, "\uac10\ucc30": 11473, "\uc131\uc801\ud45c": 15802, "\uc5ed\uc2b5": 20798, "##\uc0f5": 3284, "\ub300\ud559\uc6d0": 6798, "##\ub560": 3552, "\uc9c4\ud53c": 24458, "\ub9cc\ub4e0\ub2e4\uace0": 28598, "\uce78\ub9c9\uc774": 23842, "\ucd5c\ud0dc\uc6d0": 21574, "\ub514\uc824": 10992, "\ubd80\ub2f9": 6475, "\uc2ec\ud608": 13378, "\uc73c\uc168": 9185, "\uac15\ud574\uc84c": 29059, "\ube44\uc8fc\ub958": 17404, "\ud30c\uc774\ub0b8\uc15c": 18151, "\uc0b4\uae4c": 31398, "\uc7ac\ucd09": 14035, "\uad6d\uad70": 11849, "##\ucc4c": 3415, "##\uadf8\ub7ec": 14670, "\uac70\uafb8": 10478, "\ud638\ubc15": 12396, "\ub9dd\uc2e0": 19453, "\uc2a4\ud540": 23041, "\uce5c\uc120": 19934, "\ud2b8\ub808\uc77c\ub7ec": 30879, "\ucfe1": 1739, "SF": 16371, "\uce60\ub808": 13871, "\uc5f0\uad00": 6597, "\ub538\uae30": 10341, "\uac70\ub450": 6387, "##\ud2f8": 3043, "\ub118\uc5b4\uac14": 15474, "\ub4e4\uc5b4\uc62c\ub838": 28848, "\ud655\uc7a5": 5434, "\uad6d\uacfc\uc218": 30316, "\ubbfc\ud68c": 22880, "\ub300\uad6d": 8937, "\uaca8\uc790": 22226, "##\ud0ac": 2764, "##\uc0ac\ud68c": 24618, "\uc554\uae30": 15257, "##\uba38\ub2c8\uc998": 22028, "\ub098\uc624": 3853, "\ud0c0\uc774\ubc0d": 12316, "\ube44\uc6c3\uc74c": 31150, "\uae4c\ub974": 27151, "\uc774\uc0c9": 11408, "\uacbd\ub0b4": 29739, "\ubc00\ub9bc": 27287, "\uc804\ub2e8\uc9c0": 23561, "##\ub85c\ud638": 23443, "\uc7a5\uba74": 5034, "\uc720\ub958": 14160, "\ub9d1\uc2a4": 27342, "MBN": 22112, "1927": 22831, "\uc62c\uac00": 25092, "\ub178\ub7c9": 22509, "\ud638\uc218": 7753, "\uc704\ub2c8": 28063, "\ub3c4\uc2dc\ubc14": 24737, "\ub178\uc870\uc6d0": 17209, "##\ub178\ubc14": 30330, "\uc815\ubd09\uc8fc": 31062, "##\uae45\uc2a4": 31266, "\ub3cc\uc544\uc62c": 11628, "\uae50\uae50": 29924, "\uc5b8\ub2c8": 5674, "\uc57c\uac04": 8478, "\ub290\ub2c8": 12302, "\ud68c\ub2f4": 4823, "\ucd9c\uc0ac\ud45c": 19832, "\uc2e4\ud5d8\uc2e4": 16841, "\u5716": 294, "\uc548\uc808\ubd80\uc808": 27087, "##\uacfd": 2638, "\uc911\uc218": 24759, "\ubc30\uc784": 15108, "1921": 25067, "\ub4b7\uace8\ubaa9": 28775, "\uc870\ud68c": 10398, "\ubc14\ub290\uc9c8": 24406, "##\ucf54\uc2a4": 17086, "\uad50\ubd80\uc138": 24022, "\uc0ac\ub2e4\ub9ac": 16416, "\ubc1b\uce68": 19384, "\ud22c": 1801, "\uc758\ub8cc\ube44": 14836, "\ub85c\ub9c8": 6335, "\uc9c0\uad6c": 4290, "##\ud37d": 3450, "\ubc29\ubc94": 20279, "##ley": 19724, "\ube60\ub97c": 29095, "\uc0bc\ucc9c\ub9ac": 30488, "##\ub0b8\ub2e4": 7151, "\uace8\ud504\ud074\ub7fd": 30703, "\uc634\ub2c8": 30096, "\uac80\uc0ac\uc7a5": 17838, "\uc2e0": 1327, "\ud3c9\ucd0c": 23437, "\uac1c\ucc99\uc790": 30278, "\uc2b9\uc790": 12438, "\ubaa8\uae30": 11250, "\uc2a8": 1318, "\uc804\ud22c": 5635, "##\uae30\uae08": 15908, "\uce74\uba54\ub77c": 5677, "##\ubbf8\uc220": 25619, "\ubc15\ud78c": 16366, "##\ud3a0": 2559, "\ubc1c\ub05d": 19493, "\ub0a8\uac15": 29241, "\ubb38\ud654\uc804": 31300, "\uc608\uc220\uac00": 8560, "\uacbd\ucf8c": 16499, "\uc720\ub2c8\ubc84\uc124": 22967, "\uc54c\ubca0\ub974": 25934, "\uc77c\ubab0": 19723, "\uac15\uc11c": 18036, "\ubc29\uae08": 9684, "\ud0c0\uc774\ud0c4": 29618, "\ud574\uc84c": 5568, "\uad11\uc591": 9295, "##\ud0c0\uc790": 23426, "\ub9c8\uc74c\uba39": 13052, "\ubd80\ub2e8\ud788": 26396, "\uc7ad": 1529, "\uce74\ub97c\ub85c\uc2a4": 25840, "\uc678\uc2e0": 12533, "##\ubcf4\ub77c": 19582, "\uc131\uacf5\ud68c": 24945, "\uc81c\ucca0\uc18c": 16253, "\uc168\uc73c\ub2c8": 29308, "\uc9c0\ucf1c\ubcf8": 16553, "\ubd10\ub3c4": 7293, "\uad6c\ub9ac": 9822, "\ubb34\uc2ec\ucf54": 19787, "1997": 6812, "\uc815\uc601": 19554, "\uccad\uc591": 16690, "\uae00\ub85c\ubc8c": 4279, "\ub2f9\ub2f9": 7412, "\ub420\uae4c\uc694": 14765, "\ucb49\ucb49": 28798, "##\uc6b0\ub4dc": 7262, "\ud0dc\uc5b4\ub0ac": 9499, "\ud734": 1956, "##\ub77c": 2181, "\uad04\ubaa9": 23678, "\uc74c\ub780\ubb3c": 25013, "\ub2f9\uad8c": 15113, "\ub274\uc2a4": 4836, "\uc789\uc5ec": 14362, "\uacf5\ubbfc\uc655": 25643, "\ubcf5\ubb34": 10201, "##\ud559\uc790": 6478, "\ub9c8\uc9c4": 13401, "\ucee8\uc124\ud305": 7327, "\uac11\ud310": 22074, "\uc6a9\ub3c4": 8382, "\uadc0": 630, "\uc54c\uc544\uc8fc": 18665, "\uc6cc\ud130": 9478, "##\uad04": 2962, "\uc654\uc5c8": 17322, "\uc2a4\ud2b8\ub77c": 16625, "\ubb3c\ud2f0": 19778, "\u318d\uc758": 28270, "\ucc28\uc6b0\ucc2c": 29738, "\ubab0\uace8": 29789, "##\uba78": 2820, "##\ud1b0": 2204, "##\uccb4\ub2a5": 22919, "\uc694\ud2b8": 14343, "\ud22c\uc790\uc790": 5123, "\ub9c8\uc220": 11367, "\uad6c\ud68d": 27117, "##\ud058": 3184, "\uc81c\uc8fc\uc2dc": 22492, "\ube48\ub300": 31106, "\ub77c\ub294\ub370": 27267, "\uc120\uccb4": 15980, "\uaf43": 684, "[unused260]": 31760, "\ud488\ubaa9": 6852, "\ud568\ubc15": 21586, "\uc601\uc591\ubd84": 20810, "##\uadf8\ub9bc": 19400, "##\ub204\uc2a4": 14880, "\ud50c\ub77c\uc2a4\ud2f1": 10221, "\ud718\ubc1c": 11689, "\ucd1d\ud559\uc0dd\ud68c": 24571, "##H": 2109, "\uace0\uc57c": 19372, "\ud610\uc758": 4456, "\ub9e4\uc785": 6130, "##CA": 22026, "##\uccb4": 2093, "\ud2b9\uacf5": 22010, "\ub9f9": 1056, "\uc8fc\uad70": 23454, "\ub958\uc911\uc77c": 28029, "\uc1a1\uad11": 28686, "\uc81c\uac01": 13726, "\ucd95\uc0b0\uc5c5": 28719, "##\ub354\uc2a4": 11017, "\ubd80\ub3d9\uc0b0\uc5c5": 30417, "##\uad11": 2222, "\uac1c\uc2e0": 16484, "\ube44\uc8fc": 16819, "##\uc624": 2168, "\u91cd": 515, "\uc720\uac00": 5704, "\uc0ac\uadf9": 16986, "\uc77c\uc138": 12845, "\ucd94\ub860": 14201, "##\ubca0\uc774\uc2a4": 14200, "\ub9cc\ub0ac": 5836, "##\ub371\uc2a4": 15022, "\uc568\ubc94": 6711, "\uc591\ud3c9": 12525, "\ucf5c\ub77c\ubcf4\ub808\uc774\uc158": 28632, "\uc528\ud2f0": 15848, "##tive": 10148, "\ub204\uad74": 19735, "\uacc4\ub2e8": 7328, "\uc694\uc998": 4442, "\uc0c1\uacac": 29055, "\ucf69": 1733, "560": 24900, "\ud574\uc9d0": 25243, "\ub9ac\ub77c": 6316, "\uc6d4\uac00": 20168, "\ubb3c\ub9b0": 30752, "\uc0e4\ube0c": 26282, "\u5206": 257, "##\ub9de\uc774": 14567, "\uc2ec\uc2ec": 11174, "##\ub125": 2635, "\uc11c\uc7a5\ud6c8": 27993, "2010": 4690, "\ucd1d\uba85": 24874, "\uc591\ud76c": 26134, "##32": 23752, "\ud750\ub97c\uc218\ub85d": 30855, "##\uacf5\ud654\uad6d": 27771, "\uc904\uc904\uc774": 12355, "\ud074\ub7fd": 5993, "\uc78a\uc5b4\ubc84\ub838": 29179, "\ub208\uaf43": 29692, "\ube44\ub9b0\ub0b4": 28001, "\uc5c4\ud55c": 30389, "Love": 26998, "\uc0b4\uc544\uac08": 12275, "##\ub8e1": 2664, "[unused199]": 31699, "[unused268]": 31768, "##\ucc21": 3100, "\ub369\uc774": 25404, "\ubd80\ub4dc": 5503, "\uc5d4\uc9c4": 6447, "##\uad8c\uc790": 6674, "\uacf5\uc591": 21984, "\uc774\ud0dc\ub9ac": 24478, "\ubbfc\ud2b8": 23213, "\ud55c\uc911\uc77c": 31074, "\uac15\uc815\ud638": 16197, "cy": 28648, "\uba38\ubb3c\ub800": 10836, "\uc138\ubd84": 12627, "Mor": 30376, "\uacc4\uc218": 16415, "##\ub124\ub9c8": 13991, "\uc0b0\uc5c5": 3751, "\uc808\uaddc": 20677, "\ub0b4\ub194": 19319, "\uac00\ub824": 7937, "\uac00\uc778": 23834, "\ub300\ube44\ucc45": 27341, "\ud560\uc99d": 23673, "\uc591\ub3c4\uc138": 15830, "\ubbfc\uc871": 4499, "\ub2ec\ub824\uac00": 10207, "\ud1b5\ud48d": 18426, "ind": 21076, "\uc2a4\ud31f": 28812, "##iation": 23449, "\uc0b0\uc790\ub77d": 30265, "##\ubc1b\uce68": 7894, "\ud3ed\uc2a4\ubc14\uac90": 14645, "\ud558\ubc18\uae30": 5860, "[unused452]": 31952, "##\ud401": 3173, "##\ub9f4": 3089, "\u0430": 103, "\ucde8\ud560": 11560, "\ubcf8\ub798": 7730, "\ubc8c\uc778": 9667, "##\uac40": 2724, "##out": 16618, "\ubb38\uc7ac": 5161, "\uc5c5\ub370\uc774\ud2b8": 13197, "##\ub77c\ub294": 23548, "##\uce58\uc544": 17494, "CT": 17558, "\uc2dd\uc774": 13049, "\uadfc\ud669": 26437, "\uc625\uc2a4\ud37c\ub4dc": 23470, "\u5408": 279, "\uac70\ubb38\uace0": 28399, "\uc804\uacf5": 5911, "\uc911\uc0ac": 25851, "\uc8fc\ub144": 5710, "\uacb9\uce58": 13110, "\uc120\ud589": 8403, "##\ub85c\uc6b0": 9151, "\uc787": 1512, "\uc77c\ub300": 6394, "##\uc290": 3381, "##\ud558\uc774": 13957, "\ub214": 782, "\uc735": 1494, "\uadc0\uc18d": 16626, "##EA": 10840, "\ud1b5\uc7a5": 8051, "\uc704\ud2b8": 23624, "\uc2e0\uacbd\uc99d": 24904, "##\uc18c\ub4dd": 7625, "\uc218\ubaa8": 21206, "\u2640": 161, "\ub9e4\ub274\uc5bc": 13336, "\ud3ed\ubc1c\ubb3c": 26882, "\ucc3b": 1639, "##\ub4e4\ub9ac": 19427, "\uc5ec\ub825": 12770, "\ub77c\ub514\uc624": 6526, "\ud310\uc2dc": 20928, "##\ub20c": 3158, "\uc190\ub2d8": 6654, "##tian": 25544, "##\uadf8\uc81c": 25045, "\uad00\ub2a5": 25791, "\uac24\ub7ed\uc2dc": 7275, "\ub113\ud790": 28620, "\ube64\ud788": 23053, "\ub418\ub808": 28180, "\uad6c\ub85c": 12648, "\uc591\ucabd": 8108, "##\uce74\uc640": 22676, "\ucd95\ud558": 7007, "\ubaa8\uc758\uace0\uc0ac": 15981, "[unused90]": 31590, "\ub9d0\ub054\ud788": 22205, "\uc2e0\ub3d9\ube48": 20583, "\uae30\uc9c0\uad6d": 26005, "\ub18d\ubbfc\uad70": 30631, "\uc720\uaca9": 13988, "##\ub791\ub4dc": 29202, "\uc774\ub4ec\ud574": 9944, "\uc131\uc2ec": 22146, "\uc804\uacbd\ub828": 14655, "\ud604\ud589": 6785, "\uc785\uc7a5": 3946, "\ucd95": 1673, "\ud5e4\uc5c4": 18153, "\ub77c\uace0\uc694": 14722, "##\uc5b4\ub3c4": 6186, "\ub098\ub8e8": 21846, "\uc804\ub4f1": 20640, "\ubc00\uc5b4\uc8fc": 28987, "\ud615\ud3b8": 7647, "\ubab0\uc544\ubd99\uc774": 31325, "\uc190\ubaa9\uc2dc\uacc4": 31039, "660": 24964, "##\ud788": 2468, "\ubbf8\uc220\ud488": 19272, "\uac15\uc11c\uad6c": 16104, "\uae40\ud574\uc2dc": 16629, "\uc601\uc7ac\uad50\uc721": 25698, "\ud3ec\ub9cc": 28265, "\ubbf8\uccd0": 14245, "\uc9f8": 1603, "\ub9dd\uc124\uc784": 23165, "##\ub824\uc11c": 7485, "\ud574\uc900\ub2e4": 13334, "\uad6d\uae30": 14788, "\ud5a5\ud574": 4985, "450": 13103, "\uc2e0\uc120": 6667, "##\ud321": 2788, "\ubc14\uc790\ud68c": 29535, "\ub86d": 996, "730": 31468, "\uc815\ubb34": 9351, "##\ub109": 3295, "\ube14\ub799\ubc15\uc2a4": 20094, "\uc774\uacf5": 15532, "\ud6c4\ucfe0\uc2dc\ub9c8": 15224, "\uc644\uace0": 28805, "\uc545\ucc29": 30255, "\ub370\ub9ac\ub2e4": 30758, "\uac1c\ub150": 4453, "\ubbff": 1110, "\uc694\ud558": 15965, "\uc218\ud504": 19985, "##\uae40": 2288, "##stag": 8744, "\uac78\ub808": 25962, "##\uc800\ud2b8": 10008, "\ub300\ud55c\ubbfc\uad6d": 4892, "\ud751\uc0c9": 25279, "\uc790\ub9bf\uc218": 14690, "\uc11c\uc2b4": 16764, "\uadf8\ub7ec\uba74": 5036, "\uc120\ub7c9": 19177, "\uc138\ubaa8": 29122, "\ubbf8\ub918": 27101, "##\ub808\uc774\ud130": 13088, "FOMC": 27194, "\uad74\ub69d": 18007, "\ub109\ub109\ud788": 29218, "\ucd5c\uacbd": 10556, "\uc774\uad00": 15336, "\uce58\uc6b0\uce58": 27569, "\ubcc0\uc99d\ubc95": 17885, "##\ud798": 2622, "\uc0ac\ubb34\uc7a5": 23448, "\uc804\uac00": 16293, "\uc758\uacbd": 27319, "\ub450\ub4dc\ub838": 23308, "##ham": 29358, "\uaca9\uc0c1": 21038, "\ud558\uc597": 13357, "\ud2b8\ub9bc": 22434, "\uc0c1\uc18d\uc138": 19844, "\uafb8\ub838": 26196, "##\ucc28\ub840": 9723, "\uac71\uc815": 4419, "\ubc8c\uc5b4\ub4e4": 15858, "\uc2dc\ub2ec\ub824": 29307, "\u8655": 481, "\uc774\uc8fc\ubbfc": 20471, "\ud4f0": 1877, "\ub2e4\uc774\uc544\ubaac\ub4dc": 12725, "\ud65c\uc9dd": 10682, "\uc870\ub871": 14275, "##\ud3ec\uce20": 4474, "\ud2b9\ubcc4\uc2dc": 24922, "\ubc30\ud6c4": 9861, "\uc2a4\ub7ec\uc6b4": 4799, "##\uadfc": 2169, "\uc313": 1343, "##\ud61c\uc9c4": 17922, "\uc800\uc9c0": 6196, "\uac78\uc74c\ub9c8": 29199, "\uc81c\ub54c": 16031, "\uc21c\uad50\uc790": 27953, "\uc131\ud07c": 19533, "\ub2e4\uace0\uc694": 15483, "PT": 29445, "\ubd88\uae38": 11244, "\uc0dd\ubb3c": 6416, "240": 13434, "\ud22c\uae30": 8527, "##\uacf5\ud56d": 10654, "FT": 19505, "\uc7a1": 1523, "##\uc790\uce58\ub2e8\uccb4": 18758, "##\uc744": 2069, "\uc815\ub0a8": 29794, "\uc815\ubabd": 11143, "\uc219\uc885": 18801, "\uc804\ub77c\ub0a8\ub3c4": 22272, "\ub3d9\ud5a5": 8588, "\uc21c\uc774": 8066, "\ud604\uc874": 12710, "\uce58\uc57d": 16487, "\uc704\uc548": 5921, "\uc62c\ub77c\uc624": 9535, "\uaca9\ud55c": 27902, "\uc0bc\uac01": 11021, "\ud3ec\uc6a9": 13568, "\uc758\ub839": 25234, "\uc5ec\ube44": 27781, "\ucd9c\ubc1c\uc810": 12824, "##\uaddc\uc9c1": 6966, "\uc601\ud638": 19107, "##\ub9ac\ud2b8": 5914, "\uc6a9\ud488": 7134, "\uc154\uc57c": 9392, "\ubb35\ubb35": 11631, "\uc138\uc785\uc790": 13067, "\u314e": 193, "\uc9c0\ub3d9\uc6d0": 23998, "\uac15\ub2f9": 13179, "##\ubc84\uc2dc": 22941, "\u0438": 105, "\ub05d\ub09c\ub2e4": 21277, "\u6b66": 405, "\ucd94\uac00": 4140, "\uc774\uc774": 15225, "\uace0\uc0ac": 7613, "\ubb3c\ub958": 6921, "\uc5d8\ub808": 30356, "\uba54\uc2dc\uc544": 25143, "\uc7a5\ud559\uae08": 8437, "b": 69, "\uc808\uce5c": 17785, "\ucf54\ub808": 11764, "app": 23356, "\ud615\ud615": 29931, "\uc5c7\uac08\ub9ac": 15906, "##\uc96c": 3094, "\uae30\uc218": 14425, "##\uc870\uac01": 19795, "\ud30c\ub77c": 10278, "\ubc31\ud654\uc810": 5269, "\uc801\uadf9": 4133, "\ub0b4\ub824": 4105, "\uc99d\uc2dc": 6395, "\uc591\uc9c0": 15355, "\uc790\uc9c0": 30956, "\ud1b5\ud560": 21673, "\ub07c\uc5b9": 20126, "\uc27c": 1310, "\ub450\ub824\uc6cc": 9862, "\ubc0b\ubc0b": 23977, "\ub4f1\uc0b0\uac1d": 24937, "\ud734\uc804": 15719, "\ub808\uc778": 11626, "##\uc751": 2026, "\uaebc\ub0c8": 12083, "\ud68d\uad00": 23015, "\ubcf4\uc2e0": 29452, "\uc120\uc545": 24334, "\uaec4": 668, "##book": 23764, "\uc704\ud574": 3627, "\uae30\uc219": 9674, "\ub09c\uc81c": 21463, "\ub4dc\ub77c\ub9c8\ud2f1": 26897, "\ud45c\uba85": 8313, "\ud130\ubb34\ub2c8": 15701, "[unused190]": 31690, "\uc791\uc5c5\uc790": 25806, "\uaf3d\ud788": 8789, "\uad81\ub140": 23429, "\uc790\uc720\uc8fc\uc758": 10410, "\uc2ec\uc0ac": 4917, "\ubbf8\ud2b8": 26148, "\uc644\uc2b9": 22389, "##\uc18d\uae30": 17585, "\uac1c\ubc1c\uc790": 14177, "##\ud83c\udffb\ud83c\udffb": 29210, "\uc870\ud569\uc6d0": 7235, "\ud06c": 1750, "\ub284": 789, "##\ucfe0": 2666, "\uc758\uc9c0": 4659, "\uc81c\uacf5": 3894, "\ub2e8\uc77c": 5661, "\ub2f7": 820, "\ubf51\uc544": 21627, "##\ub550": 2355, "\ud574\uc804": 27418, "\uc624\ub4dc\ub9ac": 29519, "\uac70\uccd0\uc11c": 22289, "DB": 16731, "\ub610\ub837": 17065, "\ub9de\ucdc4": 14115, "\uadc0\uc5fd": 11076, "\ud5e4\uccd0": 16719, "\ub9ac\ubaa8": 9118, "\uc6d0\uc791": 9990, "[unused374]": 31874, "##\ud134\ud2b8": 13768, "\ub09c\ub370": 22772, "##\uc790\uc720\uad6c\uc5ed": 12927, "\ub77c\uc778": 5152, "\ud568\uacbd": 23911, "\ucc28\ub9c8": 14150, "\ub9e4\uacbd": 13648, "\ud0c0\uc778": 7122, "\uc804\uace8": 29036, "\ud45c\ud604": 4074, "\uc3dc": 1356, "\uc774\uccad": 14289, "\ud2b8\ub77c\uc6b0\ub9c8": 19965, "\uc544\uc6b0\uc131": 22999, "\uc778\uac74": 9911, "\ube44\uc794": 29554, "Ex": 13166, "\uac00\ub9f9\uc810": 9070, "\uad6c\ubbfc": 17115, "\ud574\uad70": 7487, "\uad00\uacc4\uc0ac": 30016, "##echn": 18900, "\uc720\uc18c\uc5f0": 28218, "##\uc6a9\uc9c0": 24846, "\uae30\ubee4": 20179, "\uc138\uc561": 12169, "\ubaa8\ube4c\ub9ac\ud2f0": 30397, "\ub760": 940, "\ud569\ubc95": 10308, "\uc778\uc13c\ud2f0\ube0c": 10669, "\ubc29\uc601": 10206, "\uad00\ud560": 9318, "\uc5b5\uc6b8": 8338, "\ub798\ubbf8\uc548": 18588, "##me": 14451, "\ud1f4\uc0ac": 18753, "##\ub7ec\uc6b0": 28359, "\uc138\uc870": 21396, "\ub9c8\uc74c\uac00\uc9d0": 15460, "\uad6d\ubbfc\uce74\ub4dc": 22250, "\ud32c": 1839, "\uc774\ud574": 3923, "\uacb0\ud63c": 4273, "\ud06c\ub098\ud070": 27250, "\uc790\ub9e4": 9646, "##\ud14d\uc2a4": 15221, "##\ub8f9": 3090, "\ud734\uc9c0": 17177, "\ucd08\ub529": 28883, "##\ucc9c\ub3d9": 16183, "\uace0\uc591": 5307, "\ud6a1\ub839": 9849, "\uac04\ub9cc": 25024, "\uc5f0\ud3c9": 7962, "[unused451]": 31951, "\uc815\uc131\uaecf": 22827, "\ubcf8\ubd84": 29523, "\uc8c4\ucc45\uac10": 16289, "##\u339d": 3208, "##bl": 29178, "##\uac8c\ud2b8": 27184, "##\ub215": 3152, "\ubc18\ud658": 9951, "##\uc5c7": 2330, "##\uc0db": 3334, "##\ub86f": 2877, "\uc2dc\uae30": 4342, "\ubcf4\uad90": 12244, "##\uc5d0\ud2b8": 24966, "\uae08\uad00": 29038, "\uc0ac\ub9dd": 4950, "\uc11c\uc2e0": 17099, "\ub2ec\ub9b4": 18414, "##iel": 18457, "\uc911\uc559": 4097, "##\u00b4": 3439, "\ub2f9\ud560": 10639, "\ub098\uc62c": 5458, "\uc124\ub9bd": 4584, "\ub098\ubb34": 4506, "\uae30\ub9bd": 28668, "\uc7a5\ubcf4": 14480, "\uccad\uc1a1": 16663, "\ub514\uc9c0": 5422, "\ub7f4": 967, "\ub2c9\uc2a8": 25551, "\uac15\uc870": 3986, "\ud504\ub85c\uc57c\uad6c": 19344, "\ub0b4\ubcf4\ub0c8": 22199, "\uc5b4\ub9ac": 7252, "\ucd94\ud589": 22402, "\ud5a5\ud558": 7553, "\ud5d8\uc545": 25421, "##\uacbd\ud654": 30913, "\uc120\ubcf4\uc778": 9794, "\u7a76": 457, "\uacc4\uc5f4\uc0ac": 6329, "\ub808\ud37c": 25202, "\ucffc": 1743, "\uacbd\uc81c\ud559\uc790": 16061, "\uc7a5\ud765": 17777, "\uc544\ub974\ubc14\uc774\ud2b8": 10674, "##sh": 12876, "\uce74\uc774": 10640, "\uac00\ub974\uce68": 9854, "\uadf8\ubd84": 7244, "\uace0\ucd08": 29639, "##MA": 11721, "##\ubaa8\ube44\uc2a4": 15466, "\uc751\uc218": 24906, "\ub729": 931, "\uc124\uc804": 23808, "\uac00\uc9c0\ub7f0\ud788": 27670, "\ud14c\ub7ec\ub9ac": 17193, "\ud280\uaca8": 25668, "##\uae61": 3127, "\ubcf4\ud6c8": 12559, "\uc804\ud55c": 13332, "\ud37c\ud130": 30168, "\uc0bc\uc131\uadf8\ub8f9": 11753, "##\ubc15\uc9c8": 22016, "\uae54\ub9ac": 29700, "\uc774\ub178": 10828, "\ud558\uc2dc": 29062, "\uc2e4\uc81c\ub85c": 4539, "\ube57\ubc1c": 22696, "##\ub80c\ud1a0": 31081, "##\uc0cc": 2785, "\ud5e8": 1914, "##itz": 29893, "[unused428]": 31928, "\uc5f4\ub9ac": 4834, "\uc801\ud3d0": 13523, "\ubbf8\uc9c0": 9397, "\uc9c8\ud22c": 12122, "\uc8fc\uc815\ucc28": 27852, "\ub098\ub85c\ud638": 25270, "\uc5b4\ub824\uc11c": 14478, "\ub108\uadf8": 20571, "##enn": 19550, "\ub358\uc2a4": 28470, "\uc7ac\uc120\uac70": 30429, "[unused227]": 31727, "##\ucc3b": 3291, "\uc9c8\ub824": 22092, "\ubb34\ub108": 6673, "##as": 5199, "\uad00\ub9ac\uc0ac": 24576, "\uc804\ubc18": 5099, "\uc62c\ub824\ub2e4\ubcf4": 17141, "\uc601\ud654\uc778": 25175, "\ubc29\ud0c4": 15243, "\uacc4\uc2b9": 9381, "\ub9c8\uc154": 11101, "\ub2ec\ub825": 17045, "\uc544\uc6b0": 6164, "##\ubc88": 2517, "\ud37c\uc2dc": 12594, "\uc790\uc704": 13124, "##\ubd80\ub9bc": 15223, "\ud53c\ub4dc\ubc31": 16405, "\ub208\uae38": 5578, "\ub7ec\ube0c": 9458, "\uac11\uc791\uc2a4\ub7ec\uc6b4": 23109, "\ub8e8\uba38": 19070, "\uae30\uadfc": 30465, "\ub4e4\uc5b4\uac00": 4160, "\uc720\ud604": 28227, "\ub6f0\uc5b4\uac00": 24766, "\uc218\ud3c9": 11723, "\ud63c\uc7a1": 15799, "\ud604\uc2e4": 4017, "\uc774\ud0c8": 5338, "\uacf5\ud559": 6745, "##\ub098": 2075, "\ucc44\uc6cc": 7611, "Dav": 21210, "98": 7456, "\uce5c\ubb38": 26688, "\uc790\uad81\uacbd": 31473, "##\uc5f0\uc124": 24394, "##\ub807": 2974, "\ubaa8\uc5b4": 26668, "##\ud248": 3566, "##ridge": 22372, "\uc65c": 1460, "\uc7a5\ub7c9": 26886, "##\uba69": 3281, "\uc874\uacbd": 7534, "218": 27548, "\ubb38\ud559\uad00": 19310, "\uc131\ubcc4": 12444, "\uc774\uae38": 10473, "\uc5b4\uca4c\ub2e4": 15582, "##ench": 30193, "##\uc6cc\ud504": 27503, "\ub098\ub9c8": 10644, "\uacbd\uc740": 23775, "\uac15\ub3d9\uc6d0": 30346, "SE": 20771, "\ucfe8": 1741, "\ub2c9\uc2a4": 24196, "person": 31016, "\uc2ac\ub7fc\ud504": 22816, "##ers": 6314, "\uccab\ub208": 24122, "\uc790\uc791": 15168, "\uc724\uc131\ud658": 31317, "\ud6c4\ub824": 21880, "\uc911\uc21c": 8820, "\uc911\uc18c\uae30\uc5c5\uccad": 16970, "\ub300\ube44": 4112, "\ubc84\ub4dc": 15265, "\ub808\ubc14\ub17c": 21131, "\ud558\uc774\ub77c\uc774\ud2b8": 18694, "\ud3ec\uc9c0\uc158": 12856, "##\uc6c5": 2564, "\ubcf8\uc758": 24381, "\ube44\ub2d0": 10437, "\u5149": 246, "\uae08\ud654": 27027, "\ub41c\ub2e4\uba74": 6499, "##\ucef8": 3560, "\ub450\uaebc": 11121, "\uc8fc\ucc28": 5447, "\ub4f1\ubcf8": 24838, "\uc5f0\uc6b0": 23477, "\ud0c0\uc2a4": 31321, "\ud654\ub4e4": 27862, "##\uc2e0\uc800": 13193, "\ud30c\uacac": 6430, "[unused11]": 31511, "##\ub300\uc655": 26909, "\uc624\ub300": 22825, "\uccb4\ucf54": 14574, "\uc0ac\uc808": 14520, "\ub958\uc131": 30989, "\ub09c\uc774\ub3c4": 16001, "\uac00\ub098\uc548": 30608, "\ubbfc\ub178\ucd1d": 23551, "\ubab8\uccb4": 27722, "\uadf8\ub7ec": 3626, "All": 17924, "\uac00\uac8c": 6042, "1894": 26891, "\uc218\uba85": 9038, "\ub514\uc81c\uc774": 25556, "\uace0\uc6b4": 13969, "\uba74\ub3c4": 15886, "\uc2dc\ud589\ucc29\uc624": 17415, "\uad6d\ud654": 15780, "\uc720\ud574": 7609, "\ud1b5\ud654\ub7c9": 31022, "\ud6c4\uac01": 27258, "\ubc1c\uc790": 10199, "\ubca8\uae30\uc5d0": 13214, "\uc5b4\ub4dc": 20936, "\uad6c\uce58\uc18c": 19838, "##w": 2175, "\ucc3d\uc6d0\uc2dc": 8914, "\uad11\ub3d9": 24930, "##ear": 10220, "\ud480\ub824": 12229, "\uc2e0\uc758": 16989, "##oo": 18990, "\uc9c4\ud76c": 30756, "\ub9cc\ub3c4": 26752, "\ub180\ub790": 8179, "\ud76c\ub9dd\ud1f4\uc9c1": 24812, "\uc5d8\uc2dc\ud2f0": 29712, "##\uc870\ub958": 22237, "\uc9c1\ubd84": 27714, "\ud504\ub85c\uc138\uc2a4": 11142, "##mt": 30630, "\ucd08\uace0\uce35": 22301, "##\ud2b9\uc704": 24634, "\uc120\ud48d": 14411, "\ub9e5\uc544": 22726, "##55": 19578, "\ud53c\ud574\uc561": 24638, "\ubb3b\ud788": 21312, "\uac00\uacc4": 6666, "\uac1c\uc131": 5879, "\uadf8\ub838": 11276, "##ran": 9016, "\uc0b0\ub73b": 16975, "\uc720\uc5c5": 23267, "\uad81\uc804": 14029, "\uc11c\ub824": 27133, "\uae40\ub355": 20528, "##\uc2a4\ub808": 8243, "\ubb3c\uc0b0": 27003, "\ub4dc\ub824": 13244, "\ubc30\uc544": 23293, "\uc758\ubb38": 5959, "\ubb3c\ub9ac\ud559": 13687, "\ud30c\uc6b0": 11994, "\ub4b9": 875, "\ubb34\uc218\ud788": 20579, "\ucd94\uc9c4": 3835, "##\ub7ec\uc2a4": 4968, "##\uc100": 3256, "\ub525": 893, "\uc50c\uc6cc": 24664, "\uad70\uc694": 5582, "\uc5b4\ub9b0\uc544\uc774": 11098, "[unused34]": 31534, "\uc8fc\uac04\uc9c0": 21447, "\uc885\uad50\uc778": 23459, "\ud68c\uc758\uc2e4": 10917, "\uc124": 1263, "\uc5f0\ucd9c\uc790": 26279, "\uccad\uad6c": 5300, "##EX": 26228, "##\ub7f4\ub4dc": 22115, "\uc794\ub729": 9114, "\uc5f0\uc7a5\uc804": 23893, "\uc11c\ud55c": 15675, "\uc625\uc2dc": 23636, "Dr": 26863, "\uc2ec\ubbf8": 21519, "\ub531\uc9c0": 18154, "\ud3c9\ud0dd\uc2dc": 18870, "\uc0e4\uc624\ubbf8": 27891, "##\ub364": 2840, "##\ub96d": 3154, "##\ud0dc\ud604": 29303, "Y": 61, "##\ubea8": 2909, "\uc18c\ub9e4": 8696, "\u9bae": 539, "\ud544\ub4dc": 11025, "\uc6d4\ub9c8\ud2b8": 26822, "\uc5b4\ub9c8": 12245, "\ub0a8\ud3b8": 4507, "\uc2e4\ub798\uc694": 30175, "\uc548\uc591\uc2dc": 16551, "##\ud504\ub780": 13512, "\uc720\uc8c4": 11043, "\ubb34\uc81c\ud55c": 18638, "\ub9c8\uc774\uc560\ubbf8": 24961, "\ubc31\uc218": 19277, "##\uc783": 3032, "\uc774\ubaa9": 11086, "\ub192\uc77c": 9213, "name": 7746, "\uc655\uc131": 13531, "\uc2ec\uacbd": 15864, "##\ucc0c": 2596, "\uacc4\ub8e1": 19089, "\u60e1": 356, "\ud300\uc6d0": 15104, "\uc5f0\uc2e0": 15153, "\uc774\ub048": 12297, "le": 19760, "##\uc804": 2165, "\ubc88\uc5ed": 6500, "\ud669\uc7ac": 23619, "\uc11c\uba74": 10759, "\uc778\uc2e0": 20397, "\uc774\uc2a4": 6209, "\ubc1b\uc544\ub4e4": 4617, "\uc82f": 1549, "\ud0c0\uc774": 5306, "\ub960": 1016, "ET": 10413, "\uc120\ubcc4": 11168, "\ud32c\uce20": 15144, "\uc870\uc11d": 28400, "##ade": 16628, "\ubaa9\ud45c\uce58": 18873, "\uc758\uc81c": 10175, "\ub3d9\uadf8\ub780": 25826, "\ub450\ub9ac\ubc88": 22564, "\uc218\ub85c": 19373, "##\uce58\ub9c8": 22444, "##\ubd05": 3324, "\ub300\uc2b9": 15602, "\ubd80\ub974": 4681, "##78": 24075, "\ud6c4\ud3ed\ud48d": 17958, "\uc11c\ud0dc\uc9c0": 21140, "\ub208\uac10": 24379, "T": 56, "\uacf5\uace0": 7715, "##\ud0c0\uc784": 15302, "\ud1a0\ubc15\uc774": 25455, "\ub2c8\ub2e4": 8648, "##\uc2a4\ud2f0": 6800, "Asia": 28600, "\ud1b5\ud589\ub8cc": 18586, "\uac1a": 556, "\uba38\uc9c0": 16759, "\uc54c\ub824": 3922, "##\uc131\uc7a5": 8120, "[unused457]": 31957, "\ubc15\uc601\uc218": 31337, "\uc14b": 1275, "\uc560\ucd08": 7998, "\u5341": 269, "\uc0c8\uae30": 18795, "236": 29722, "##\uc2a4\ud1a0": 6806, "\ud3ec\ucc9c": 14240, "\uc720\ub2c8\ud074\ub85c": 28955, "\ub04c\ub824": 9001, "##tr": 14766, "\uac15": 553, "##\ud150\uce20": 5051, "\ubd88\uac10\uc99d": 25459, "\uacbd\ud5a5": 5363, "G": 43, "\ud14c\ub9c8\uc8fc": 24199, "\uc548\ud1a0\ub2c8\uc624": 30283, "\uacf5\uc0c1": 17794, "##\uce90\ud53c\ud0c8": 15989, "\uc9c0\uc544": 20986, "\ub9db\ubd24": 28650, "\ubbf8\uacf5\uac1c": 31165, "\uc2a4\ub7f0": 7323, "\ub300\ub2e8\ud788": 8476, "\ubaa9\uc804": 29245, "\ucd9c\ud1a0": 19055, "\uc131\ube48": 28351, "##\uac00\ub9ac": 10809, "\uc790\uc0b0\uad00\ub9ac": 15598, "\ub300\ucc45": 4272, "\uc7c1\uc758": 24657, "\uc6b0\ub77c\ub284": 18567, "\uce74\ud398": 4964, "\ub2db\uc0b0": 17083, "\ube44\uc120": 20617, "\uc720\ub2c8\ubc84": 16780, "\ucc9c\uc0c1": 16758, "\uc774\ubc88": 3686, "\uc57d\uc18d": 4680, "\uc0b4\uc544\uc624": 22231, "145": 14383, "\ub118\ubcf4": 31258, "\uc5b4\uc815": 26167, "\ud2b9\ubcc4\ud68c\uacc4": 29892, "\ub0b4\uc2ec": 14604, "\ub3cc\ubcf4": 9878, "##\ud0c8": 2217, "\uac78\uae4c": 9575, "\uad34\ub85c": 13028, "\uad6c\ubb38": 26680, "\uc74c\ub300": 26193, "\uc120\uc7a5": 11064, "##re": 5164, "\ud45c\ubcf8": 11735, "\uc9c0": 1583, "\uc783\uc5b4\ubc84\ub838": 20508, "\uc751\ucc30": 31230, "\uc220\ud0c4": 28314, "\uc804\uc6a9": 5119, "\ud610": 1921, "\uc544\uc528": 27489, "\ub2e4\ub9ac": 5035, "\u529b": 264, "\uc560\uacac": 17693, "1966": 16038, "\ub3d9\uadf8": 15563, "\u4fdd": 239, "\uac15\ud300": 23388, "\ubd84\ud3ec": 10339, "MC": 10099, "\uadf8\ub79c\ub4dc": 10453, "\ube14\ub9c1": 30823, "1400": 14838, "[unused133]": 31633, "##\uc870\ub9ac": 9553, "157": 14516, "\uc790\uc0c1": 19262, "##\uc554\ub3d9": 14817, "\uba78\uce58": 15715, "\uae09\uc131\uc7a5": 15162, "\ub418\ubb3b": 28410, "\uc800\uc808\ub85c": 10886, "\uc608\uc21c": 29704, "\ubc84\ud130": 11787, "##\ud53c": 2263, "\uc0ac\ubaa8": 9857, "\uc9c0\ub124": 30468, "\ub0b4\ub824\uc9c4": 20752, "##ublic": 16725, "\uc9c4\uc601": 7092, "\ub9ac\ubca0\uc774\ud2b8": 20904, "\uc6d0\uc790\uc7ac": 11279, "\ub9c8\uadf8\ub124": 21568, "\uce74\ub9ac": 22670, "\uad50\ud5a5\uc545\ub2e8": 21093, "\ub4f1\ud55c": 31078, "##AA": 15875, "\ub5a0\ub3cc\uc774": 31093, "\ub0a8\ub3d9": 12519, "##\ud2c0\ub79c\ub4dc": 15296, "\uc628\ub77c\uc778": 5004, "##\ud761": 2975, "##\ub77c\uc774\ud130": 27214, "\ub2e4\uad6d\uc801": 13623, "\ub300\uce58\ub3d9": 19190, "\uc18c\uc2dd\ud1b5": 13669, "\uace8\ubaa9\uae38": 14387, "\u5bcc": 324, "\uc0c1\ud638": 5230, "\uad50\ubbfc": 20876, "\ud3d0\ud5c8": 17968, "rep": 25357, "\uacbd\ud76c": 11593, "##\ucda9": 2419, "\uc81c\ud68c": 25618, "\ub9c9\uc2a4": 18954, "\ubca0\ub124\uc218\uc5d8\ub77c": 20790, "\ub300\ubc15": 8183, "\uc790\uba85": 17768, "\ub2e4\uc774": 5970, "##\ud2b8": 2265, "\ubc1c\ud718": 5693, "\ubc84\ud06c": 20391, "\uc9d5": 1591, "\ub77c\uc988": 25530, "##\ub9ac\uc2a4": 4397, "\uc804\uacfc": 17951, "\uc0c1\uc784\uc704": 11696, "##\uc791\uc804": 27026, "\ub0b4\ub824\uac14": 12314, "[unused8]": 31508, "\ud56d\ud574": 11415, "##E": 2105, "\ub294\uad6c\ub098": 10191, "\uae30\ubcd1": 22293, "\uc0ac\ub4e4\uc774": 18096, "\ub370\uc774\ube44\ub4dc": 12145, "\uc0ac\uadc4": 28336, "\ud611\uc8fc\uace1": 22634, "\uad11\uc800\uc6b0": 14647, "\uc218\uad50": 18714, "\uac04\ucca9": 13782, "\uccb4\uac10": 10761, "##MCA": 22677, "\uc9c0\ub8b0": 19790, "\uc544\ubc14\ud0c0": 20691, "\uc2e0\uc9c4\ub300\uc0ac": 27424, "Thomas": 28736, "\uc870\uc6b0": 23219, "\uc9c0\uad6c\ub300": 22811, "\ud06c\ub808": 12774, "##\uc9c0\uac00": 20257, "\ud604\uc9c1": 8623, "\uc6b0\uc5d0": 29332, "\uc77c\uc73c\ud0a8": 9140, "\ub3c4\ub18d": 26442, "\ub370\uc774\ube0c": 28341, "\uac00\uae4c": 4269, "\uac00\uc6b4\ub370": 3850, "\ubc14\uc774\uc624": 6324, "\ud568\ubd80\ub85c": 10334, "\uacbd\ub95c": 16478, "\uca84": 1611, "\uc77c\uc871": 29058, "\uc591\uae30": 24951, "\u4e03": 214, "\uc815\uadfc\uc6b0": 28774, "\uc92c": 1572, "\uc5b9": 1409, "\uc6a9\ub9f9": 20620, "\uc544\ubbf8": 12096, "117": 14724, "\u5e73": 339, "\ucee4\ud2b8": 20034, "\uc0c1\ubb34": 6911, "\uaf2c\uce58": 17381, "##\ucf20": 3506, "\uc804\uc11d": 27978, "\uc778\ud488": 25405, "\uc228\uc9c0": 13822, "[unused455]": 31955, "\uc2e0\uace1": 14418, "[unused108]": 31608, "\ub4e4\ud1b5": 27375, "\ubc15\uc9c0\uc6d0": 11438, "\uc5ec\uac1d\uc120": 15646, "\uc601\uc591\uc18c": 15269, "\uc218\ub3c4\uad8c": 20134, "\uace8\uc790": 12017, "\uc5d0\uc138\uc774": 14621, "##\ub808\ub9c8": 14905, "\ub9ac\uc628": 22583, "\uc18c\uc6a9": 8578, "\uc0c8\ud558": 24667, "\ud760\ubed1": 18495, "[unused130]": 31630, "\uad11\uc0b0\uad6c": 21431, "##\ub300\ud45c": 5718, "\uacbd\uc8fc": 5586, "\uac78\uae4c\uc694": 17260, "\ucc38\uacac": 28457, "\uc11c\uc6b8\uc2dc": 5087, "\uc9c1\uc7a5": 4804, "\ud320": 1834, "\ucd95\uc18c": 6009, "\uc548\uc8fc": 9570, "\uc0c1\uc218\ub3c4": 16028, "\ubfcc\ub9ac": 5369, "\ud0c8\ucd9c": 7597, "\ud074\ub7ec\uce58": 27225, "\uc5b4\ub9b0\uc774": 4498, "\uac08\uc218\ub85d": 7013, "\uc720\ub8cc": 9967, "##\uc0c1": 2290, "rec": 23785, "\ub300\uba38\ub9ac": 26495, "\ube44\uc77c\ube44": 27432, "\uc5d0\uac8c\uc11c": 5609, "\uac70\uce68\uc5c6": 22788, "\ud559\ub300": 10241, "\u842c": 480, "\ub137\ub9c8": 19308, "\uac90": 579, "\ubcf4\ubcd1": 20646, "##\ub178\uc774": 16748, "\uc120\ubcf4\uc77c": 10678, "\ud658\ud638": 11217, "\uc57c\ub2f9": 5178, "\ub354\ub77c\uace0\uc694": 6376, "##\uc2a4\ud1a4": 24690, "\uc81c\uc7ac": 5900, "\ud604\ub300\ucc28": 5610, "\uad6c\ucd9c": 18087, "\ud559\ub144": 4678, "\uc635\ud2f0\uba38\uc2a4": 28881, "##90": 11445, "\uac04\ub300": 26071, "1909": 25816, "\ub2f9\uc704": 14763, "\ud55c\ub2e4\ub2c8": 29820, "\uc885\ub958": 5285, "\uc5d4\uc9c0\ub2c8\uc5b4\ub9c1": 14184, "\ube60\uc838\ub098\uc654": 28007, "\ub3cc\uc544\uac04": 14197, "\ud615\uad11": 19417, "I": 45, "\ub098\ud504": 31240, "##\uc557\uac04": 30687, "\uce5c\uc808": 7798, "\ub355\ubaa9": 16498, "\uc591\uc190": 16098, "\uac74\ub108": 5828, "\uc655\uad8c": 20715, "##\ucabc": 2591, "\ub178\uc219": 12124, "\uc62e": 1447, "\ud640\uac00\ubd84": 28387, "\uad6d\uc601": 14474, "\ubca0\uc77c": 16996, "\ub354\ub7ec\uc6cc": 30461, "\ubc84\ub77d": 12670, "\uc639": 1452, "\ub530\uc838": 8723, "##\ucf54\ub974": 22206, "\uc9ed\uc9e4": 26137, "##\uc800\uc2a4": 9595, "\uc8fc\uc758\uc790": 11761, "\uc900": 1566, "\ucd94\uc0b0": 9940, "152": 16446, "Er": 23774, "\ube14\ub791": 27131, "\ucf58\uc2a4\ud0c4": 21031, "\ub178\uc744": 18343, "\ud760": 1963, "\ube44\ub204": 13450, "\ubaa8\uc2a4\ud06c\ubc14": 13424, "\ud574\uc654\uc73c\uba70": 31326, "\uce5c\uadfc": 11928, "\ub9db\uc788": 4550, "\uc5b4\ub450\uc6e0": 30143, "\ube48\uc13c\ud2b8": 27595, "\ubc00\uc591": 9501, "##\uc6e8\uc774": 6733, "V": 58, "\uc774\uad11\uc7ac": 30028, "\uaca9\ubd84": 28124, "\uc724\ucc3d": 27329, "\uc0c1\uc6a9\ucc28": 31474, "\uc7a1\ud614": 15114, "##\ub454": 2684, "\uace0\uc555": 21319, "\ud56d\uacf5\uc6b0\uc8fc": 23756, "\ud0d0\uc0c9": 10746, "##\uc21c\uc704": 22247, "\uc774\uc6a9\uac1d": 12431, "3800": 25468, "\uc0ac\uc9c4\uac00": 28375, "OST": 20885, "\uc560\uc290\ub9ac": 27904, "\uc99d\uae30": 17424, "CD": 10078, "\uc2dd\ubbfc\uc9c0": 8400, "\uac00\uc744\ucca0": 28712, "\uc724\uc885": 17007, "\ub4dc\ub9ac\ube14": 28769, "\uac70\ucce4": 14942, "\ud504\ub85c\uc774\ud2b8": 14297, "\uc911\uc2ec": 3886, "\ub3d9\uad6c": 7522, "\ucfe0\uc158": 12884, "\uace0\uc57d": 22383, "\uc778\uc9c8": 16730, "\uc815\ud588": 11201, "\uac01\uc790": 6347, "39": 5513, "\ub110": 747, "##\ud29c\ube0c": 10625, "\uc5ed\ud560": 4008, "\ub2e4\ud22c": 10822, "\uccad\ub3d9\uae30": 26732, "\uc5b4\ub3c4": 4579, "\ubd80\ucd94": 9210, "\ud718\ud558": 24855, "\uc2b5\uad00": 5759, "\u318d\uae30": 18812, "\uc804\ub958": 22193, "##\uae30\uacc4": 19346, "[unused247]": 31747, "\ud53d\uc158": 27057, "##ener": 20488, "##\uc790\uc9c0": 30122, "##\ub808\uae30": 6575, "##DS": 25165, "\ud56d\ubaa9": 6749, "\uc601\ud654\uc0ac": 22976, "\uc18c\ud654\uae30": 18385, "\ud574\ub0a8": 15368, "\uc5b4\uc120": 10279, "New": 8909, "\uce74\ud504\uce74": 30338, "\ub77d": 943, "\uc6c5\uc7a5": 16011, "\uc720\ud6a8": 8870, "\uac1c\uba85": 25133, "\uac04\ub2e4": 6429, "ESS": 22288, "\ud2b8\ub808\uc774\ub4dc": 13338, "\uc798\uc0ac": 30055, "\ubc14\uc774": 4624, "\uc77c\uc11d": 21060, "##\ub2e4\uc774": 24393, "\ucc44\uad74": 27350, "##\uc601\uc7a5": 17113, "\ub098\uc9c0\ub9c9": 27591, "\ub4a4\ud1b5\uc218": 19228, "\uac1c\uc18c": 7988, "\uc800\ub9ac": 12615, "\ubb34\uac81": 10804, "\uaca8\uc6b8\ucca0": 11218, "\uc9c0\ub9ac\ud559": 30718, "\ub3d9\uc758\ubcf4\uac10": 27609, "H": 44, "\uc9c0\ubcd1": 30207, "##ilm": 29103, "\uc624\uc791": 31088, "\uc5b4\ub514": 4069, "\uc804\ub2ec": 4535, "\ubd88\ud5c8": 14943, "\ud0c0\uc790": 6030, "\ud0c8\ud53c": 14585, "\uc720\uc77c": 5027, "\ud0c4\uc218": 17682, "\ub098\ub208": 9722, "\uc774\uc2b9\ucca0": 30482, "##\uac00\uc2b4": 20268, "##\ubc0f": 3445, "\ubd88\ub9b0": 19596, "\uc0ac\ud3ec": 27774, "\uc774\ub0a8": 18613, "\ub9ac\ube44\uc544": 14409, "\uc8fc\ub2f9": 12881, "\ub2e4\ube48\uce58": 28156, "\ube44\uc6cc": 16848, "\ub204\ub978": 30171, "[unused377]": 31877, "\uc870\uc601": 13640, "[unused283]": 31783, "\uc0bf": 1240, "\ub6ab": 925, "##cess": 20129, "\ud3c9\uac00\uc804": 15540, "\uc18c\uaddc\ubaa8": 11204, "\uc815\uae00": 17302, "\ucee4\ub9ac": 14743, "##\uc911\uac04": 22227, "\ub300\uc804\uc2dc": 14984, "##\uba5c": 2683, "\ud558\uc0b0": 20602, "\uc778\ud130\ud398\uc774\uc2a4": 23731, "\uc5b4\uc82f": 16345, "\ud587": 1901, "\ud384\ub7ed": 27316, "Her": 22590, "##\ud3ec\ud654": 30555, "\uacbd\uc6d0": 26093, "\ud655\ub300": 3989, "\ucc59\uacbc": 14429, "##\ub4e4": 2031, "\uc5ec\uc804\ud788": 4594, "\uacb0\uc2b9\uc804": 12663, "\ubc95\ubb34\ubc95\uc778": 18621, "\uccb4\uc778": 10571, "\uadf8\uce58\ub9cc": 28468, "\ub0b4\uc92c": 15154, "##\ub301": 2739, "260": 16212, "\ube44\ud589\uc7a5": 21615, "\ubc18\ub300\ud3b8": 16222, "\ub0b4\ub824\uc628": 14820, "\uc2dc\uc6d0": 6005, "\uc218\uc791\uc5c5": 28895, "##\ucd9c\ud608": 27547, "\uc911\ub300": 6651, "\ub0a8\ubbf8": 11719, "##\uc20d": 3178, "\u52d9": 266, "\uc774\ub7f0": 3667, "\uae30\uad00\uc9c0": 16524, "##\ubc99": 2539, "\uc18c\uc6a9\ub3cc\uc774": 16358, "\ub300\uc785": 10606, "\ub0b8": 733, "##\uc653": 2969, "\ud1f4\uc9c4": 11054, "\ub77c": 942, "\uc544\ubc18\ub5bc": 20704, "\uc774\uc655": 16431, "\ud14c\uc774\ud504": 12238, "\uc0c5\uc0c5\uc774": 24062, "\ub369": 839, "\uad6c\ud0c0": 19584, "\uc810\uce58": 28696, "\uc911\uac1c": 8429, "\uc774\uc815\ubbf8": 31060, "\uba54\uc778": 9073, "\ud56d\uacf5\uc0ac": 9369, "##olf": 30892, "\uc3e0\ub838": 26136, "\uc9c0\ub2d0": 30176, "\ub2e8\ud638\ud788": 27019, "\uc720\ub9bc": 27013, "##\uc774\uba74": 24094, "\ubbf8\uc9c0\uadfc": 29765, "\uacbd\uc778": 11405, "\ub2e4\ub978": 3656, "\ud65c\ub85c": 21887, "\ub3d9\ub450\ucc9c": 19109, "\uc11c\ud230": 26773, "\uac8c\uc774\uba38": 30040, "\ud5cc\uae08": 22452, "\ub418\ub3cc\uc544\uac00": 19730, "\uc7ad\uc2a8": 16871, "\ucc28\ube44": 31195, "##ice": 11431, "\uc678\uacc4\uc778": 21423, "##\ud558": 2205, "\ubb38\uc9c4": 21641, "\ub2c8\uccb4": 15220, "\uae30\ub7ec\uae30": 27403, "\uc544\uae4c": 5663, "##\ubc1b": 2757, "\ud655\uc778\uc11c": 30043, "\uc0c1\ucf8c": 15740, "\ub86f\ub370\uc81c\uacfc": 28338, "\ud5a5\uc0c1": 5144, "\ub3c4\ud1b5": 27658, "\uad6d\uc775": 16343, "##\uc0ac\uc774\ub4dc": 26470, "\uc2b5\uc9c0": 12499, "\uc9c1\uc804": 6480, "\uc0dd\uaca8\ub0ac": 14511, "\uc77c\uc77c": 9479, "\ub3c4\uba54\uc778": 29565, "##\uace1\ub9ac": 25578, "\uae08\uc815": 18303, "##\ud6c4": 2158, "\ub85c\uad70": 18924, "##ally": 24203, "[unused233]": 31733, "\ub9dd\uace0": 16647, "\ubab8\ud1b5": 16362, "\ub4dc\ub9b4\uac8c\uc694": 12937, "\ub41c\ub2e4\uba70": 22605, "##her": 12125, "\ub300\uc8fc": 8289, "Review": 26401, "\ud2b8\ub799": 10066, "\ube44\ucca0": 19597, "\ub3d9\uc6d4": 17317, "##\ud3ed\ud0c4": 22946, "##\uc14b": 3136, "\ubc1c\ubc14\ub2e5": 19643, "\ub0b4\ub1a8": 8962, "\ub2e4\uac00\uac14": 16603, "\uc7ac\ub825": 25007, "\uad00\uc81c": 12141, "\uc591\ub9bd": 21381, "\uc54c\ud30c\ubcb3": 23084, "\uc88b\uc544\ud558": 6992, "\uc0c9\ucc44": 12666, "\ubb34\ud654": 23844, "\ud574\uc120": 12324, "\uc6d0\ud65c": 8262, "\uc9c0\uadf9\ud788": 10949, "\uace0\uad6d": 17229, "\ub9dd\ud560": 22228, "\uae30\uc120": 20770, "\uc808\uc815": 12011, "\uce5c\uc704": 28245, "\ud1b5\ubcf4": 6944, "##\uba58\ud2b8": 10468, "\ubc45\ud06c": 8511, "\uc774\uc0ac": 4188, "\uacf5\ubcf4": 14627, "\uc7ac\ub7c9": 16435, "\uc11d\ud0d1": 24756, "\ud558\uc778": 12265, "##\uc704": 2090, "\uac70\ub798\ucc98": 16724, "##ule": 30480, "##\uc190": 2390, "\ube14\ub7ed": 25073, "\ubc8c\ud06c\uc120": 27960, "\ud504\ub791\uc2a4\uc5b4": 19182, "\ucde8\uc5c5\uc790": 13462, "\uc7ac\uac80\ud1a0": 16372, "\ub0a9\ud488": 7893, "\ub300\uc9c4": 21345, "\ud53c\ub178": 27245, "\uc721": 1491, "\uc231": 1304, "\ub3c4\uae09": 20827, "\uac74\ub2e4": 28465, "\uc5f0\ub839\uce35": 28642, "\uc120\ucc29\uc7a5": 23816, "\uadf8\ub0e5": 4181, "Ox": 26893, "##\ucd1b": 3338, "\ubc18\uba74": 4305, "\ub2ec\ub824\uc624": 20215, "\uc606\uc9d1": 19029, "\ud30c\ub9c8": 23728, "\u5e74": 340, "\ub192": 772, "\ud655\uc5f0\ud788": 16843, "\uc7a5\ucda9": 23471, "\ubc29\ud669": 14231, "\uc18c\ubc29\ubc29": 31370, "\uc9c0\ub0b4": 5958, "##\ud734\uc77c": 16278, "\ud504\ub9b0": 8354, "\ud5a5\ud1a0": 14668, "\uac00\uae4c\uc6b8": 28837, "\ub418\ub3cc\ub824": 15877, "\ucda9\uc804\uae30": 22409, "\uc0ac\ubaa8\ub2d8": 22225, "\uacfc\uc218": 26245, "\uc800\uc9c0\ub974": 12695, "\ub300\ubd80\ubd84": 4057, "\ud604\uc7ac": 3738, "\ud0d1\uc2b9\uac1d": 28244, "\ubbf8\ub798": 4037, "\uc5ed\uc2dc": 3893, "\ud074\ub77c\uc774\uc5b8\ud2b8": 31083, "\ubd80\uc81c": 17873, "\ubd80\uc2dc": 9799, "[unused316]": 31816, "[unused230]": 31730, "##iti": 15718, "\uc758\ubb34": 5054, "\ub77c\uc2a4\ud2b8": 28225, "\ub2ec\ub791": 23575, "\uac78\uc5b4\uac00": 10370, "\uc313\uc5ec": 9735, "\ucc38\uac00": 4460, "##\uc7a5\uc0ac": 30437, "\ubc18\ubc18": 22459, "\ud328\uc2a4": 9051, "\ub2f9\ud5cc": 24640, "\uac00\uc911\uce58": 26229, "\ub18d\uacbd": 15577, "\uacb0\uc7ac": 18547, "##\ud558\ub298": 13754, "\u300f": 175, "\uc785\ud78c": 20222, "##\ubd07": 3201, "\uc0b4\ub824\uc57c": 28049, "\uc9c1\uacc4": 20643, "##\uc84c": 2951, "\uc18c\ud654": 6053, "\uc7ac\uc0dd": 6951, "\uc778\ud130\ub137": 4254, "\uce58\ub2eb": 16100, "\uc778\ub514": 8798, "\ub4dc\ub7ec\ub0c8": 8125, "\uc8fd\uc74c": 4809, "\ubcf4\uc5ec\ub3c4": 31438, "\ud074\ub798\uc2dd": 7364, "\u56db": 292, "\ud544\ub7ec": 27826, "\ub354\uad70": 6801, "\uc720\uc0b0": 7111, "\uc870\uc18c": 26496, "\ud638\uae30": 6564, "\uc9c0\ucf1c\ubd10": 24719, "\ube59\uc218": 18750, "\ud2b9\uc0ac": 12536, "\uc8fc\uc720": 8627, "\uad6c\uc2ac\ub540": 28473, "##\ufe0f": 2652, "\ud22c\uc2fc": 29702, "\uae40\ub300": 7082, "\uacf5\ubd84": 28977, "\uc815\uc131": 6913, "\uacf5\ub7b5": 7185, "\ud0a8\ud14d\uc2a4": 19504, "\ud559\ub0b4": 24582, "##\uc778\ud2b8": 4485, "\uacfc\uac10": 7437, "\ud5c8\ud5c8\ud5c8": 30486, "\uc18c\uc2dc\uc9c0": 21081, "##\uadf8\ub808": 13183, "\uc11c\uc220": 7819, "\ucd5c\ud558": 17408, "\uaebc\ub9ac": 14168, "\ud574\ud611": 25633, "\ubb3c\uac70\ud488": 22558, "\ubc14\ub974": 5957, "##\uc18c\uc5f0": 10392, "##\uc580": 3272, "\ub9db\ub09c": 22334, "\uc800\ud56d": 6257, "\uae40\uc0c1": 8008, "\uadf8\ub79c": 15821, "\u767d": 443, "\ud154": 1788, "\uad00\ub840": 15439, "\uc0ac\uc5c5": 3639, "\ud3ec\uc9c0\uc154\ub2dd": 28695, "\uc2e4\ub7ec": 30436, "\ubc31\ub450": 11566, "\uc81c\uc870": 4755, "\uc124\uc0c1\uac00\uc0c1": 26544, "\uc778\uc870": 11510, "\uc704\ud0c1": 8190, "\u6751": 394, "\ub2e4\uac04": 25891, "\ubcd1\uc2e0": 26784, "\ub9c8\uc2a4\ud130": 8570, "\ubc1c": 1123, "\uc9d1\uc5b4": 18736, "\ud55c\ub2e4": 3605, "\uc0c1\ub2f9\ud788": 5334, "\uc2dc\uac00\ucd1d\uc561": 12935, "\ub3c4\ub9c8\ubc40": 31024, "\ud53c\ud3ed": 29669, "\ud63c\uc218": 19666, "\uccad\uacfc": 28961, "\ub3d9\uc2dd\ubb3c": 23241, "\ub370\uc774\ud130": 5189, "\uade0\ud615": 5238, "\uc5d4\uac00": 28158, "\uac15\uac00": 19080, "\ubb34\uc18c": 16649, "\ub514\ud39c": 23494, "\uc811\ud560": 13266, "\ub450\ub4e4": 16390, "\uc2e0\uc138\uacc4\ubc31\ud654\uc810": 17367, "\ud1a0\uc694\ud0c0": 25388, "##S": 2238, "##iff": 20970, "##\ub9ac\uc5d0": 17016, "\uc800\uc628": 24590, "\ube44\uc625": 30609, "\uad8c\ub825": 4730, "\uc2dc\uc220": 8519, "\ud669\uc0c9": 27300, "##\u261e": 3406, "##be": 26713, "\uc7a0\uc2dc": 4954, "\ud2b9\uc218": 5177, "\uc2a4\ud130\ub514": 17034, "\uce6b": 1695, "\uc0c1\ub3d9": 24686, "##\ubc84\ub9b4": 21992, "\ub180\uc774\ud130": 12692, "\uc0ac\uc775": 28445, "\ucd5c\uc804\ubc29": 25040, "\ubcf4\uc5ec\uc57c": 18937, "SAT": 28386, "\uc81c\ub2e8": 21004, "\uc704\uc57d": 23063, "\uc21c\uc21c": 20662, "\ub3cc\uc5f0\ubcc0\uc774": 26892, "\uad11": 609, "XX": 26610, "##LPGA": 17265, "\ud1a0\ud558": 19959, "\uac10\uce60": 22876, "\uc790\uce74": 19689, "##\uac70\uc8fc": 31068, "\ubc15\uc6a9": 12365, "4300": 31023, "\uc774\uc7ac": 5912, "\u81f3": 474, "\ud5a5\ubc29": 23890, "##\ubc31": 2353, "\ud3c9\uade0\uce58": 27923, "##\uace1\ub3d9": 13506, "\ubcf8\ub860": 27349, "\uc57c\ub300": 29756, "\uc774\ub04c": 4597, "\ud504\ub80c": 13288, "\ub828\uad00": 31423, "##\ub9dd": 2087, "##\ub9bd\ub2c8\ub2e4": 7316, "\ubc1c\ubc84\ub465": 25781, "\uac11\uc2dc\ub2e4": 25749, "\uc790\uc5f0\uc0b0": 31082, "##\uc555\uac10": 29277, "\ub300\uc704": 13278, "\uc2b9\ud569\ucc28": 29182, "\ubc14\ub451": 8829, "\ub561": 908, "\ud63c\ub3c8": 14967, "\ud1a0\ucc29": 17749, "##\uc744\uac70\ub9ac": 19232, "\uc775\uc0b4": 26268, "\uc77c\ub958": 14800, "\ub9e4\ub3c4": 7754, "\uc11c\ud574": 8132, "##\ubaa8\ub354\ub2c8\uc998": 27079, "\ud0dc\ubc31\uc0b0": 24741, "\ucc38\ud68c": 23509, "\uc8fc\uc790": 6788, "\ud504\ub791\uc218\uc544": 23664, "\u53cd": 272, "##\uc2dc\uac04": 8964, "\uc2a4\ud53c\ucee4": 13615, "##\uad6c\uc7a5": 18518, "104": 13724, "\uc62c\uae4c": 31444, "##\ud320": 3411, "\ud754\ud55c": 12978, "\uc544\ub9ac\uc2a4": 15001, "##\ub09a": 3080, "\ubf08\uc544": 24113, "\uc464\uc154": 29405, "\uc77c\uc8fc\uc77c": 28179, "\uc2a4\ud0c0\uc778": 27398, "\uc548\ud0c0": 4970, "\uc81c\uc655": 13760, "\uc804\ud658\uae30": 26577, "##\uc140": 2387, "\uc18c\uc911": 6045, "\ud720\uccb4\uc5b4": 14699, "##\ub728\ub9b0": 11295, "\ubc1b\uc544\ub4e4\uc774": 6131, "\uc774\ub370\uc544": 30454, "\ub9c8\ub825": 13494, "\uc0dd\ud544\ud488": 18842, "\ud6d4\ucce4": 25984, "\ud478\ud2f4": 15042, "\ud639\ud55c": 29628, "\ub9c8\uc758": 26258, "\ucb10": 1619, "\ucd09\ubc1c": 13564, "##\ub809\ud2b8": 24745, "\ud611\ucc2c": 18497, "\uc885\ucc29": 24534, "\ud588\uc796\uc544": 12922, "ARS": 26659, "\uc5b8\ub860\uc778": 11129, "\uc784\uba85": 6019, "##\uc544\ub9ac": 7458, "\ub2e4\ub8e8": 5778, "\ub2ec\ub77c\uc694": 23845, "\ub300\ub780": 15116, "\uccad\ub834": 11519, "\ubd80\uc5b4": 25672, "##\ub358": 2414, "\ucef4\ud4e8\ud130": 5170, "##\uc73c": 2279, "\uc548\ub4dc\ub808\uc544": 29435, "\ubb34\ub840": 18852, "\uc288\uc988": 16286, "\ube59": 1193, "##\ub824\uace0": 10554, "\uc62c\ub77c\uac04\ub2e4": 16172, "\ub300\ub2f5": 4769, "\uc560\ud2cb": 19222, "\ubaa8\uc5ec": 5417, "\ubcd1\ubcc0": 27979, "\uac10\uc5fc": 6887, "DVD": 22730, "\ucd9c\uad6d": 10314, "\ucda9\ubb34\ub85c": 25627, "\ud1b5\uc870\ub9bc": 27630, "\uc15c\ub85d": 30717, "\ub2e4\uc800\uc2a4": 11751, "\ud654\uc0b4": 9981, "\uc751\ubc29": 30746, "\ubc00\ud3d0": 22695, "\uc6d0\uc561": 29894, "\uac10\uc138": 15143, "\ub098\ub984": 6189, "\uc1a1\ucd9c": 24475, "##\uc624\ud53c\uc2a4": 29776, "##\ubd80\uc9c0": 24895, "\uac00\ub4dd": 4983, "\uc2b9\ubd80\uc870\uc791": 22294, "##\ucda7\uac00\ub8e8": 18346, "\uc11c\uac00": 26333, "\ud76c\uc11d": 20994, "\ub0b4\uc2e4\ud654": 30401, "\uc62c\ub77c\uc640": 14607, "\uc9c0\uc790\uccb4": 5518, "Work": 24376, "\ud30c\ubb38": 10717, "\uc0ac\uac00": 27237, "\uc9d5\uc5ed\ud615": 23334, "\uc774\uc528": 25558, "\ub80c": 976, "##\ubb34\uc0ac": 17394, "\ud504\ub7ad\ud06c": 20024, "BSI": 30683, "\ucea1\uc290": 17249, "\ub3c4\ub7c9": 27551, "\uc5d8\ud504": 19027, "[unused459]": 31959, "\uc2dc\ud0b4": 12902, "\uc5f0": 1431, "\ud14c\ud06c\ub2c9": 20709, "\uc131\ud76c\ub871": 14991, "\uc904\uc5b4\ub4e0\ub2e4": 16053, "\uac15\ud55c": 5031, "\ubd84\ub9ac": 5590, "\uc9c4\uc2e4": 5352, "\uc721\uc0c1": 8941, "\ub300\ud574\uc11c": 3958, "\ud55c\uaca8": 10250, "##\ud2f0\uc544\uace0": 30660, "##y": 2076, "\ub308": 826, "\ud07c\uc9c0\ub9c9": 28621, "\ubcf8\ub2a5": 9021, "\ud30c\uc2a4\uce7c": 29800, "\uac10\uac00": 23957, "\uc1a1\uacf3": 26321, "\ub0b4\uacfc": 17204, "\uccb4\uc911": 9232, "\uc0ac\uc7ac": 20934, "##\uc218\ub3c4": 22757, "\ud55c\ub3d9": 30329, "\uc9c0\ucf1c\uc628": 26171, "\uc640\uc774\uc988": 28238, "\uc9c0\ub0c8": 8340, "\ubb34\uc774\uc790": 18117, "\uafe8": 698, "\uc801\uc751": 6670, "\ud750\ub984": 5203, "\ube4c\ub9b0": 17321, "\uc54c\ub9b0\ub2e4": 30686, "\uac78\uc5b4\uc57c": 22238, "\ub3d9\ub3c5": 17814, "\ub3c4\ubbf8\ub2c8": 24283, "\uac1c\uad00": 9244, "\ubcf4\uace0": 4530, "\uc218\uc871": 19261, "\ud1a0\uc774": 23068, "\ubd80\ub2f4": 4147, "##\uc644": 2365, "\uc6a9\uc9c0": 7855, "##\ub3c8\ub098": 28130, "19": 3630, "\uae30\ud53c": 11748, "##\uc88b": 2716, "[unused348]": 31848, "\ub3d9\uc7a5": 24921, "\uc81c": 1545, "\ud55c\uc6a9": 30538, "\uc0bf\ud3ec\ub85c": 26651, "[unused264]": 31764, "\ub370\ub824\uc640": 29589, "\uc5d0\uc694": 4464, "\ube48\uc190": 24827, "\uac15\uc0ac": 6397, "\ud0dd\ubc30": 9678, "\ud588\uc744\uae4c": 30348, "\uad74\ubcf5": 16108, "\ubd88\uac70": 8470, "\ub9c8\ud2b8": 6435, "\ud3ec\uc2a4\ud130": 11811, "##\u3142": 2243, "\uc5f0\uc5f0": 19451, "##\ud68c\uc7a5": 5650, "\uc778\uba3c": 23117, "\uc218\uc2ed\uc5b5": 17413, "\uc138\ubb34": 8845, "\uc870\uc81c": 18545, "\ub808\uc624": 11890, "##\u223c": 2991, "\uc99d\ucd95": 16604, "\ube44\uae30": 26058, "James": 26041, "\uc544\ucc14": 16869, "\ubc84\ud168": 16557, "\uc544\uc774\ud328\ub4dc": 15641, "\ubcf4\uc131": 14900, "[unused29]": 31529, "\ubd80\ucd1d": 28084, "##\uac08": 2577, "\ub69d": 923, "\uc811\uadfc": 4872, "##\uacbd\uad81": 29154, "\ud3d0\uc0ac": 22404, "\uc815\ud604": 14358, "##ities": 26106, "\uc8fc\uc7a5": 3831, "\ub0e0\ub0e0": 17588, "\uc288\ud2b8": 21847, "\ucca0\uae38": 30479, "\ubaa8\ub2e5": 30699, "\ucd08\uac00": 21491, "##\u3163": 2880, "\ud3c9\uc9c0": 21798, "##tic": 7920, "\uc798\uc0dd\uae34": 20992, "\uc18d\ubc15": 25842, "\ud5a5\ud6c4": 4914, "[unused483]": 31983, "##ral": 27419, "##ck": 24154, "\uce94\ubc84\uc2a4": 20558, "\uac70\ub9cc": 24811, "##85": 21411, "##\uc218\uc601": 30561, "\ubb34\uc131": 13251, "\ub118\uce58": 7206, "##ious": 21492, "\uc815\ube44": 5336, "\ub367\ubd99\uc5ec": 15040, "\uc9c8\ucc45": 16589, "\ud504\ub9ac\ub79c": 24552, "work": 24208, "178": 14432, "\uac1c\uc7a5": 8886, "\uc219\uc600": 18214, "\uc774\uc728": 18907, "##urt": 29368, "##\uc918": 2810, "\uc871\ubd80": 29648, "\ub044\uc9d1": 19099, "\uc120\uc5b8\ubb38": 17164, "LPG": 17268, "\ub300\ubc95\uad00": 10535, "\uc0ac\ub974\ucf54\uc9c0": 29783, "\ub0af\uc775": 23493, "##\ud1a1\uc2a4": 22098, "##\ubcc4": 2439, "\ud604\ud310": 21811, "\uc555\uad6c\uc815\ub3d9": 29514, "\uadf9": 637, "\uc554\ud751": 15537, "\uc228\uaca8\uc838": 21978, "\uc624\ub974\ub0b4\ub9ac": 18282, "\uc2e0\ub098": 9716, "\uadf8\ub9cc\ub46c": 31395, "\uc7ac\ud559": 9155, "\uc790\ubb38": 6842, "\ubc15\uc138\ub9ac": 27544, "\ube44\uc624": 20580, "\uc5f0\uc2b9": 8690, "\ud758\ub7ec\ub0b4\ub9ac": 20120, "\uce74\ud1a8\ub9ad": 26371, "\ub808\uc774\uc800": 11792, "\ub098\ud0c0": 3765, "\ubb3c\uc5b4\ubcfc": 22171, "\uc2ed\uc2dc\uc624": 6513, "\uacb0\ud575": 16661, "\ucd95\uc0b0\ubb3c": 19103, "\u7523": 433, "\uc090\uac71": 25972, "1924": 23489, "\ucd5c\ud0dc": 15430, "\ub3d9\ubb3c": 4801, "\ub9d0\ub9b0": 18025, "\ucc38\ubc30": 15788, "##\ucc58": 3509, "\uc815\ub9d0": 3944, "\uc5c4\uc219": 18476, "\uc561\uc815": 19470, "\uac78\ub9b0": 7835, "\ub204\uad6c": 4061, "[unused328]": 31828, "##orts": 30798, "\ud37c\uc84c": 15963, "\ubab8\uc9d3": 13326, "1200": 11275, "\uae30\uacc4": 5276, "\uc2a4\ud305": 30150, "\ube7c\uc557\uae30": 17273, "\uacbd\uc5f0": 11755, "##\ubc14\ub78c": 7964, "\ud0c8\ubd81\uc790": 12751, "\uc544\uac00\uc528": 9019, "\uc815\uccb4": 5528, "286": 31323, "\uc544\ub9ac\uc544": 18914, "##\ud68c": 2124, "\u65e5": 378, "\ud53c\ud2b8": 11061, "\uc724\ud68c": 19802, "##\uc2ec\ud310": 25871, "\ubcf5\uc2b5": 22503, "\uc815\uc0c1": 4073, "\ud63c\uc804": 26452, "##\uad8c": 2207, "\ub0c4\ube44": 15504, "##\ub809\uc2a4": 8965, "\ub300\uc2e0": 4217, "\uccad\ubb38": 6824, "\ucad3\uaca8\ub098": 20116, "\uc138\uc778": 30837, "\ud06c\ub85c\uc2a4": 10875, "\ucf54\uce6d\uc2a4\ud0dc\ud504": 23264, "\ud6c4\uc608": 18951, "\ud754\ub4e4": 5094, "##\ubcf5\uc9c0": 24779, "##2": 2302, "110": 9180, "\uc720\uc5b4": 29174, "\uc21c\uc704": 5297, "\ubcf4\ud638\ubc95": 13772, "\ub450\uc0b0": 6141, "1936": 20727, "\uc62e\uacbc": 10047, "##\uacbd\uc601": 20466, "\uacfc\ud559\uace0": 18670, "\ucc38\uc11d": 4391, "##\ucc28\uae30": 18888, "\uad70\ub370": 9289, "\uc801\ubc1c": 7238, "\uacbd\uc81c\ub825": 16088, "\uace0\ubbfc": 4445, "##47": 23296, "\ub178\ub9c8": 30805, "\uccad\uacc4\ucc9c": 17677, "\u33ca": 212, "\ub4dc\ub838": 8343, "\uce74\uc6b0": 22487, "\ub2f4\uac00": 20985, "\uc815\ub2f5": 8801, "\ub04a\uc774": 10382, "\uae5c\ucc0d": 25179, "1933": 20998, "\ub9ac\ube59": 22261, "\u33be": 211, "CSR": 28820, "\ub300\ucda9": 9785, "\ud750\ub290\ub07c": 30861, "\ubd88\uc30d": 10967, "\uc5ec\uc758": 6884, "\ucda9\ub3cc": 6563, "\ubd88\uac70\uc84c": 20052, "\ub9ac\ud2c0": 18023, "\uc5ec\uc9c4": 13975, "\uc8fc\uc548": 19164, "\uc774\ub8e8\uc5b4\uc838": 9914, "\uc554\ud2bc": 18427, "\uc9c4\ub2e4\uba74": 22173, "\uc2b9\uac15": 14629, "\uac00\ub9ac\ucf1c": 19549, "\uc804\uad6c": 21292, "\uc77c\uae68\uc6cc": 18236, "\uc804\uc8fc\uc2dc": 24356, "\uc55e\uc138\uc6cc": 10026, "\ucca0\uc5c6": 27972, "\uc591\ub3c4": 8931, "\uace0\ub178": 30955, "\ub204\ucd9c": 19479, "\uac10\ucd95": 8114, "\ubd88\uc5b4\ub0ac": 31416, "\ub300\uc790\ubcf4": 30972, "\uadf8\ub798\uc57c": 8741, "\uadf8\uce5c": 15080, "\ud654\ubb3c": 7381, "##\ucf64": 2987, "##\ubbf8\uc544": 21374, "\ubc1c\uc791": 18138, "##ior": 24764, "\uadf8\uc9c0": 14124, "\uc2dc\ud669": 18095, "\ubc31\ub9cc": 8317, "\ucc98\ud55c": 10584, "##te": 14210, "\uadd3": 632, "\ubd84\uc591": 4516, "\ucc3e\uc544\uac14": 13138, "\ubcd1\uc5ed": 10239, "\uc624\ub385": 29937, "\uc808\ub3c4": 16927, "\uc11c\ub300\ubb38": 15655, "\uc653\uc2a8": 19517, "\ud504\ub9b0\ud2b8": 17107, "\uad11\uae30": 18225, "\ubbf8\uc18c": 5658, "\uc704\uc544": 19480, "##\ub3d9\uc0dd": 9639, "\ud0c1\uad6c": 15171, "\ud55c\ub77c\uc0b0": 19567, "##\ubc84\ub2c8": 28453, "\uad11\uace0": 4365, "\ucf54\ub9ac\uc548": 19016, "##\uad6d\uc7a5": 16323, "\ucd5c\uc900": 25985, "\ubcf4\ud5d8\uc5c5": 18786, "\uc190\uc218": 11537, "\ub7ec\uc26c": 26035, "##\ub044": 2212, "\uc0ac\ubbfc": 25532, "\uc2ec\ub9ac\uc804": 26376, "##\uc0ac\uc6d0": 31043, "\ud2c0\ub9bc\uc5c6\uc774": 13023, "\uc2dc\uc74c": 30231, "\ucc3d\uc5c5\uc8fc": 21817, "\ub298\ub824": 8691, "\ud544\ub77c\ub378\ud53c\uc544": 22080, "\uc0bc\uac00": 14866, "\ub0a8\ucabd": 7831, "\ucde8\ub85d": 22254, "\uc544\ub0a0": 15903, "\ub86c\ub2c8": 28376, "\ubc29\uc2dd": 3981, "\uc2e4\uad8c": 30134, "\ub3d9\ub300\ubb38\uad6c": 27130, "\ub85c\ud38c": 17028, "\uc131\ud669": 16268, "##\ud574\uc9c4": 31155, "\uc601\uc0c1\ubb3c": 21758, "\u7537": 438, "\uc784\uc6a9": 11401, "\uc708": 1486, "\ud1a0\ub108\uba3c\ud2b8": 20849, "\ub2d8": 805, "\uc704\uae30\uad00\ub9ac": 21290, "ar": 15991, "\ub09c\ub85c": 24014, "\ubc1d\ud78c\ub2e4": 21607, "##\uac70\ub098": 9253, "\uc131\uc219": 8655, "\uce58\uc988": 7241, "\ube44\ub1e8": 30658, ")": 13, "Sec": 22105, "4": 24, "\uc218\uc218": 5381, "##\ubca0\ub9ac": 12099, "\ucc28\uad00": 7085, "\uadf8\uac83": 3724, "\uc57d\uc81c": 25395, "\uc0ac\uc6a9\ub8cc": 16440, "\ub4b7\ub0a0": 28432, "\uad00\uc2b5": 11233, "\uadc0\ucc2e": 9949, "\uc131\ucd94\ud589": 12221, "##\uc5b4": 2051, "\uc2a4\ud30c\uc774": 13106, "\ubc95\ud559": 12973, "\ub3c4\uc804": 4726, "##\ub378": 2423, "\uc2e0\ub144": 11140, "\uc5b4\ubc84": 16041, "\ud22c\uac8c\ub354": 24701, "\uc870\uc5f0": 17053, "\uc0c1\ud488\uad8c": 9361, "##\uc0c1\uac01": 26546, "\uace0\uc2a4": 8318, "\uc5ec\ub3d9\uc0dd": 12977, "\uc808\uc2e4\ud788": 20327, "\ubd81\ud48d": 30977, "\uc774\uacf3": 4441, "\ub77c\ub3c4": 4032, "\uc790\uae09": 17815, "\uc790\uc704\ub300": 24758, "\ub2e8\uc0c1": 21881, "\ucd5c\uaddc": 28519, "\ub098\uc774\ud2b8": 11944, "\uc911\uc9c4": 12556, "\uace0\ud750": 22153, "##\uacf5\uc6d0": 13474, "[unused386]": 31886, "231": 28645, "##\ud560": 2085, "\ud154\ub808": 5244, "\uc74c\uc545\ud68c": 11608, "\uc911\uc2dd": 22378, "\ub300\uc6a9\ub7c9": 18059, "\u904b": 507, "\ube44\ubc95": 12022, "\uc5ed\ub3d9": 10312, "##\ucc98": 2294, "h": 75, "\ud5c8\ud669": 26989, "\ubbfc\ubb3c": 24555, "\uc6d0\uc0dd": 24411, "\ud615\uc9c8": 29204, "##\ub108\ubb34": 14771, "##\uad6c\ub824": 23179, "\uad00\uc808\uc5fc": 14202, "\uc81c\uc790": 6906, "\uc5f0\uc911": 13347, "\ud558\uc6b0": 15904, "\uc815\ubbfc": 18420, "d": 71, "##\ud22d": 3474, "\ud0dd\ud558": 13207, "\uc2a4\ubb34": 10791, "\uc9f1": 1602, "\ub808\ubc84\ucfe0\uc820": 31210, "22": 4107, "\ubd88\uc5b4\ub123": 11162, "\ubcf4\uc5ec\uc9c4\ub2e4": 28757, "El": 23714, "\ub85c\ub80c\uc2a4": 29566, "\uac00\ud588": 18820, "\ubd88\uacbd\uae30": 27571, "\ubc95\uad00": 11365, "\uc624\uba54": 17520, "\ubc24\uc7a0": 30254, "sc": 19700, "\uc911\uc2ec\uac00": 28286, "\ubb34\ud610": 24021, "\ub36e\uc778": 23905, "\uc124\uce58": 4198, "\uc220\uc220": 27620, "\ub0a8\uc911": 30011, "\ud729": 1955, "[unused368]": 31868, "\ub294\uac00": 4024, "\uadf9\ubcf5": 5254, "\uad50\uc6b0": 29265, "\ubc14\uac90": 21036, "\ud53c\uce20": 15902, "\uba87\uba87": 7396, "\uc804\uae30\uae08": 22720, "##\uc88c\uc11d": 22471, "\uce74\ub974": 11395, "\uc2ec\uc2ec\ucc2e": 29461, "\ubbff\uc74c": 6970, "##\uc624\uce74": 15789, "\ud5a5\ud55c": 7154, "\uc640\uc911": 9676, "##ike": 12317, "\ub9ac\ubc84\ud480": 19775, "\uc625\uc678": 21975, "\ub098\ub204": 4835, "\uac70\uc7a5": 14794, "[unused324]": 31824, "\uc2dc\uac04\ub300": 18374, "\uc5ec\ud589\uc9c0": 14040, "\uce74\uce74\uc624": 7270, "\ub9f9\uc138": 14420, "EU": 7504, "\ub04c\uc5b4\ub2f9\uae30": 27846, "\ubbf8\uc2a4\ud130\ub9ac": 17477, "\uc815\uc6b0": 12475, "\ubc38\ub9ac": 10521, "\ucc38\uc11d\uc790": 10706, "\uae30\uad00\ucc28": 29286, "\ud3ed\ub113": 10186, "##\ub098\ubb34": 4977, "\uadfc\uac04": 13626, "\ub2e4\uac00\uc130": 25397, "\uac8c\uc2dc\ubb3c": 22216, "\ub17c\uc124": 18356, "\uc9c4\uc220": 6283, "\ub3d9\uacb0": 10937, "\u25c8": 155, "\ube14\ub77c\uc778": 22933, "##\ud1a0\uc2a4": 16483, "##kin": 28340, "##ake": 16060, "##\ub7ac": 3219, "1500": 8695, "\ub6f0\uc5b4\ub09c": 5976, "##\uc231": 3533, "ICT": 10070, "\uc5ec\ud589\uae30": 27554, "\uace8\ud37c": 12538, "\uce74\ub9ac\uc2a4": 12956, "\ub0d0\ub294": 6454, "\uc21c\ucc28": 13661, "\uc65c\uad00": 29726, "\uc6b8\uc74c": 9483, "\ubb61\ub2c8\uae4c": 17363, "##\uada4": 2903, "\uace0\ub09c\ub3c4": 26619, "\ud5a5\uae0b": 25003, "\ub4dc\uc154": 17966, "##\ud3d0\ubb3c": 18027, "##\ucc30\uccad": 20809, "{": 94, "\uc218\ud638": 10333, "\uc774\ub798\uc800\ub798": 27723, "\u318d\uc8fc": 26392, "\uc694\uc778": 5090, "\uc124\uacc4\uc0ac": 16676, "\uc0b0\ubaa8": 16269, "\uba54\uc77c": 9573, "\ub2ec\ub77c\uc9c4": 10338, "\u57fa": 299, "\ud788\ub9d0\ub77c\uc57c": 18744, "\uc778\ub370": 3933, "R": 54, "\uc5f0\ud0c4": 13283, "##TV": 7375, "\uc11c\ub298": 16796, "\ud398\uc774\uc2a4": 6343, "##\uc73c\uba70": 4007, "\ub561\uae30": 28618, "\uc9c0\ud615": 10216, "##\uc18c\uc2dc": 10431, "\uc21c\uc2dd\uac04": 9390, "\ud310\uacb0": 5253, "\uae09\uaca9": 7002, "\uc2e0\ub3c4": 11267, "\uc18c\ub098\ud0c0": 25822, "\uaebc\ub824": 19983, "\uce7c\ub77c": 17278, "\uc624\ud0c0": 17673, "\ud765\uaca8\uc6b4": 25797, "\ubc29\uadc0": 30026, "\ubc1b": 1122, "\ucc28\ub0a8": 23859, "\ube48\uc815": 28226, "Research": 25586, "\uc720\uc758\ubbf8": 24973, "\uba74\ubc1c": 28497, "\ucf64\ube44": 21695, "\uc218\uc785": 4471, "\uc774\uc81c": 3699, "\ub3c4\uc0c1": 26632, "##\uca54": 3250, "\ub4dd\ud45c": 11002, "##\uac2f\uc9d3": 29088, "\uc601\ud1b5": 23642, "\ud504\ub791": 4377, "\uae30\uc790\ub2e8": 18718, "\ubd80\ub300\ucc0c\uac1c": 28951, "##\ub2e4\ub2e5": 24537, "\ubb38\ud654\uc81c": 30926, "##\ub9b0\ub2e4\uace0": 18672, "\uc18c\ud53c": 26451, "##\uae45": 2186, "\uc120\uc9c4\uad6d": 6652, "\uc911\uae09": 30812, "\ubc94\uc8c4\uc790": 14103, "\ub2f5\uc2b5": 26588, "\uc9c8\ud0c0": 14169, "Med": 18703, "\ucf5c": 1729, "\uc2a4\ud29c": 8098, "##\uae00\ub77c\uc2a4": 13690, "\ub300\uccb4": 4761, "\ub3cc\ub9b4": 16856, "##\ubc29\ub9dd\uc774": 26726, "\ucd9c\uc0b0\uc728": 22729, "\uc6d0\uace0": 7577, "\uad11\uc5ed\uc790\uce58\ub2e8\uccb4": 27581, "\ub515": 888, "\ubd84\ube44": 11534, "\ub2e4\ub2e4": 15871, "\uc6cc\ub108": 17612, "\ubca0\ub974": 8702, "\ubc1c\uac00\ub77d": 18982, "\ubc84\ud2f0": 8899, "##\uc801\uc778": 31221, "##\ub545": 3000, "de": 10436, "\ub108\uc9c0": 25953, "\uc138\uc6d4": 4922, "\uc7a1\ud78c": 12277, "\uc6d0\ube44": 24782, "\uc758\uacb0": 7495, "\ub3c4\uc804\uc7a5": 18687, "\uce30": 1687, "\uc800\ubc88": 14247, "\ub108\ud76c": 6928, "##\ub465\uc808": 18731, "\uc5f0\uc138": 18203, "\ubbf8\ub8ec": 31142, "\ub728\ub048": 28999, "\ub367": 838, "\uc720\uc544\uae30": 28982, "\ub458\ub808\uae38": 22356, "\ub9dd\uc124\uc600": 27208, "\uae30\ub465": 9856, "\uc678\uc5f0": 23093, "\ud655\uc9c4": 16122, "##93": 25214, "\u696d": 399, "\uade0": 634, "\uc2e0\ub2e4\uace0": 19799, "\ubd80\uae30": 24517, "[unused463]": 31963, "\ud074\ub9ac\uc5b4": 21815, "##\ud0c0\ud398": 27634, "##net": 23047, "\ubaa8": 1078, "##\ud6c8\ub828": 12367, "\uc694\ucda9\uc9c0": 26423, "##\ubccd": 3455, "\ub85c\uc6cc": 12798, "\uc2dc\ub0c7": 29969, "\ud655\uc0b0": 5149, "\uc2e0\ud574": 26802, "\ubc38\ube0c": 22843, "\ub274\uc695": 5372, "\ubc18\ub780": 10605, "\ubbf8\uc178": 17595, "\ucda9\uc131": 9394, "\uc2dc\uc2e0": 8630, "##each": 27542, "\uc918\uc57c\uc9c0": 27378, "\uce90\ub9ac\uc5b4": 22406, "\ud669\uc601": 24815, "\uc5ec\uba85": 27901, "##ins": 17969, "\ub3d9\uc9c4": 28914, "\uc2dc\uadf8\ub110": 25572, "1904": 26506, "\uacc4\ubabd": 12326, "\ud65c\uae30\ucc28": 27169, "\uc6d0\uc0ac": 17603, "##\uc774\ub4dc": 5102, "\uc2a4\ub7ec\uc6cc": 8410, "market": 30128, "\uc774\ud615": 19953, "\uae30\uc6b8\uc5ec": 9983, "##ree": 15785, "\uc81c\ub3d9": 12704, "\ucd95\uad6c\ub2e8": 26895, "\ud55c\ub2e8": 13855, "\uc70c\ub9ac\uc5c4\uc2a4": 21530, "\ub3cb\ubcf4": 7829, "\uba85\uc138\uc11c": 29130, "\uc218\ud2b8": 21506, "\uad6d\ub9bd": 5327, "\ucde8\ud574": 10446, "\uac8c\uc2a4\ud2b8": 13612, "1935": 23173, "[unused435]": 31935, "\ud3bc\uccd0\uc9c4": 13464, "\uc2ec\uc0ac\uc219\uace0": 29376, "\uc720\ub77c\uc2dc\uc544": 21386, "\uae09\ub4f1": 8785, "\uc2dc\uc628": 27678, "135": 14018, "##\ub9d1": 3516, "\uc591\ub9d0": 14370, "\ubc1c\uc81c": 20379, "\ud5c8": 1905, "\uc544\uc774": 3651, "\ub3c4\uc2dc": 3763, "\uacf5\uae30\uc5c5": 8390, "##HA": 27002, "\uc11c\uc9c4": 18571, "\ud6c4\uc18d": 8830, "\uc6b4\ud558": 16630, "##\ub36e": 2911, "\ub304\uc2a4": 9156, "\uace0\ub2ec": 23265, "\uace0\ub85c": 13237, "\ucda9\ub0a8": 5544, "\uc790\ubbfc": 14804, "##\ub527": 2933, "\ub9d0\ubbf8": 11152, "\uc138\uacc4": 3665, "\uc9c1\uac70\ub798": 18024, "\ud0c4\uc555": 10537, "\ubc88\uca4d": 11640, "\uc774\ud589": 6162, "\uc545\uc131": 20638, "\ucd94\ubb38": 27741, "##ple": 31439, "\uccb4\ub85c": 30783, "\ub098\ub4e4\ubaa9": 20312, "\uc0dd\uba85\ub825": 14099, "\ubd88\ud654": 15230, "\ub2f4\ud68c": 21640, "\uc0b4\ubc8c": 25011, "\ud750\ud750": 24137, "\ud398": 1850, "\uc2e0\uc2dc": 18629, "\uad34\ub86d\ud614": 25593, "\ub4b7\uc0b0": 23717, "\u3010": 176, "\ube44\ucc38": 13090, "##\ub098\uc774\ud2f0": 13769, "\ud718\ud30c\ub78c": 25929, "\uae30\ubcf4": 18030, "\uac74\ub108\uac14": 28108, "\uae40\ubc25": 12747, "\ucee4\ubba4\ub2c8\ucf00\uc774\uc158": 7042, "\ud1a0\ud551": 25638, "\ud50c\ub8e8\ud1a0": 27201, "\uc785\uc99d": 6850, "\ub2f9\ub098\ub77c": 14076, "\ubd80\ub52a\uce58": 14987, "\ubb50": 1097, "\uc218\ud589\uc6d0": 29329, "\ud5c8\ub2c8": 17945, "\uc6a9\uc811": 19940, "\ucca0\uc800": 5176, "\ud604\ub300\uce90\ud53c\ud0c8": 16250, "##\ub0a8\ub3c4": 12182, "\uc2b5\ub4dd": 11657, "\uc2dc\uc2dd": 20262, "\ub354\ub354\uc6b1": 14236, "\ubc14\uac00\uc9c0": 19979, "\ubd80\uac00\uc138": 22284, "\uc5b4\ub450": 6924, "\ub05d\uc7a5": 18683, "\uc8fc\ubb38": 4867, "##\uacbd\uae30": 10470, "\u318d\uc2e0": 22259, "\uc11e\uc5ec": 12487, "\ubed4\ubed4": 18810, "\ubc30\uc5ed": 19713, "\uc8fc\uc120": 16272, "\ucc98\ud615": 13115, "\uadf8\ub9cc\ub450": 9256, "\ubcfc\uac70\ub9ac": 10421, "CH": 23747, "##\uac11": 2141, "\u5bfa": 326, "\ub5a8\uc5b4\ub728\ub9ac": 13537, "##\uc5b8\uc2a4": 13060, "\uc624\uc2a4\ud2b8\ub9ac\uc544": 12132, "\ub9c8\uce74\ub871": 20210, "##\uc99d": 2304, "\uad6c\ud638": 8523, "\uc785\ubc95\ubd80": 27631, "\ubc31\ud608\ubcd1": 19716, "\ub4e4\uc5b4\uc654": 6867, "\ud3f4\ub9ac\uc2a4": 16445, "\uc3f4": 1359, "\ubcc0\ud568": 10452, "\ub4e4\uc5b4\uc628": 8182, "##\uacfc\ud559": 20011, "\uc11c\uadc0\ud3ec": 13795, "\uc5c4\ub450": 16193, "[unused186]": 31686, "\ube5b\ub0ac": 20610, "\uac78\ub9ac": 6179, "\ud328\uad8c": 13227, "\uc5bb\uc5b4\uba39": 25614, "\uc804\ud654": 4117, "\ub4e0\ub2e4\uace0": 29372, "\ub77c\ub3c8": 28268, "\u3131": 182, "\ud56d\ub85c": 13075, "##que": 19958, "##meric": 15615, "Fl": 22376, "\uacf5\uad00": 16885, "\uc885\ubd81": 15213, "\ud1b5\uc2e0\ubd80": 25715, "\uc694\ub974": 20392, "##\uc9c0\uba3c\ud2b8": 18898, "\uc704\uc778": 18431, "\ubcfc\ub9c1": 20846, "\uc778\ub4e4": 25063, "\uc785\ub9de\ucda4": 29503, "\uc804\ud574": 4841, "\uace7\uc774\uc5b4": 20460, "\uba58\ud1a0": 8843, "\ud3ec\ud4f0\ub9ac\uc998": 17655, "\uc0c1\uc0c1\ub825": 9621, "##\uc548\uac04": 29949, "\ud3c9\ud0dd": 7812, "\uc720\uc2dd": 27749, "\ubd88\ub838": 13553, "##\ub818": 3265, "\ucc3e\uc544\ubcfc": 9396, "\uae30\uac01": 10510, "##\ud68c\uacc4": 16696, "\ub418\uc0b4": 9985, "\uc9c4\uc0ac": 23897, "\ubd80\uc6d0": 24068, "##\ud669": 2334, "\ubd80\ub3c4": 8790, "\ud55c\uc0d8": 24147, "\uccb4\ubc8c": 21223, "\ub098\uc640": 4541, "\ud6c4\ucfe0\uc624\uce74": 19214, "\ubc29\uc810": 20794, "\ubb38\uc218": 23585, "\ub5a8\uc5b4\uc84c": 6207, "\ube0c\ub85c\ucee4": 15642, "\uc9d5\uc218": 11241, "\ub2a5\ud1b5": 28298, "##\ud53c\ud0c8": 11419, "\uc1a1\uc218": 28146, "\uc774\ube68": 16381, "\uc774\uc820": 7194, "\ub86f\ub370\ud638\ud154": 18942, "##\uc9c0\uae30": 12593, "WP": 27115, "\uc5d8\ub9ac\uc5c7": 22367, "\ub2a5\ub960": 17475, "\ud31f\uce90\uc2a4\ud2b8": 28163, "\ud0c0\ub9ac": 29815, "\uce74\ub124": 18575, "\ubd88\uacf5\uc815": 12049, "##BM": 16830, "\ubcf8\uc5c5": 26698, "\uadfc\uc808": 11676, "\uadf8\ub807\uac8c": 3914, "##ization": 17906, "\uc774\uc81c\uc57c": 13507, "\uc26c\uc6b0": 27689, "\ub8f8": 1006, "\ubc29\ubd88": 21233, "\uc62c\ub77c\uc120": 28745, "\uad11\uace0\ube44": 25595, "\uc815\ubcf4\uad6d": 26980, "\ud50c\ub9ac": 24631, "\uc758\uc655": 11950, "\ube7d\ube7d": 22931, "\ud6c4\uc720": 11734, "\ud3c9\ud654": 4557, "\ud55c\ucc38": 6756, "##\ud1b5\ud654\uae30": 19365, "\ucde8\uc5c5": 4819, "\uac70\ub9ac\ub08c": 24420, "##\uc6c0": 2894, "\uc591\uac00": 23403, "\ub300\ub0b4\uc678": 17573, "\ud48d\uc218": 17724, "\uc6e8\uc2a4\ud134": 27370, "\ubcf8\uace0": 22399, "##\uc625": 2349, "\uc870\ub9dd\uad8c": 30019, "\ubd88\ub9e4": 22507, "\ubaa9\ub3c4\ub9ac": 30380, "\ud0dc\uc591": 5275, "\uad00\uacc4": 3654, "\uac70\uce5c": 7869, "\ub3d9\ud574\uc548": 18559, "instagood": 28247, "\uc2dc\ud2b8\ucf64": 25385, "\uccd0\ub4e4\uc5b4": 21953, "\ub9c8\uace1": 21144, "\ubd88\ud569": 24560, "\ubbf8\uc5ed\uad6d": 25741, "##\uace1": 2465, "\uc5b4\ub978": 5789, "\uc2b5\uc131": 22258, "\uc815\uc7c1": 20406, "\ucd94\uc2a4": 21593, "\ucc38\uc5ec": 3844, "\uae30\ub2e4\ub9b0\ub2e4": 20439, "\uacf5\uc9c0": 13530, "\ubc97\uc5b4\ub0ac": 17462, "\ub3d9\uc120": 16653, "\uad6c\ub2e8": 6055, "\uc12d\uc12d": 16140, "\uc5bc\ub9ac": 14596, "\ucd5c\uc9c0": 27537, "##\ucd94": 2159, "\ucf5c\ub808\uc2a4\ud14c\ub864": 14902, "\uac74": 570, "\ubb38\uccb4": 11528, "##\ub8e8\ubbf8": 12194, "\uc120\ubc30": 5990, "\uc9c4\ub450\uc9c0\ud718": 25339, "205": 20274, "\ud2c0": 1816, "##\uc70c": 3193, "\ubb3c\uc18c\ub9ac": 28974, "\ubcc0\ud55c": 13307, "\ub4dc\ub7ec": 4077, "\uc544\ub9ac\uc2a4\ud1a0": 16370, "\uae08\uc9c0": 5040, "\ubd80\uc8fc\uc758": 30685, "\uc9d1": 1589, "\uad6c\uc2ec\uc810": 23613, "\uc774\ub77c\ub4e0\uc9c0": 14012, "\uc77c\ubcd1": 20834, "\u547d": 286, "\ubcf4\ub85c": 28700, "\uc785\uc8fc": 5226, "\ube0c\ub9ac\ud2f0\uc2dc": 26115, "\uc785\ub2c8\uae4c": 7523, "\ub4a4\ud754\ub4e4": 20097, "##\uc5ec\ub984": 22555, "##\uae09": 2478, "\uc18d\uc784\uc218": 22642, "\ub4f1\uc7a5": 4454, "\ubb38\ud76c": 20694, "##\ucc44\uad8c": 28250, "\ud558\uc2b9\uc9c4": 29356, "\uc601\uad11": 7430, "\uc644\ubcbd\ud788": 21766, "##alys": 29895, "\ud22c\uc5ec": 16336, "\ubb38\uc790": 5703, "\uc9c1\ud568": 24476, "\ud2b9\uc885": 28061, "\uc724": 1492, "\uc5c5\uc8fc": 16745, "\uace0\uc74c": 27594, "\uc18c\uc0b0": 26690, "\uc5f0\uc218\uad6c": 23130, "\uba74\ud5c8": 9362, "\ub370": 842, "\uad6c\uc9c1\uc790": 14732, "\ud0d0\uc695": 14493, "\ucca0\uac70\ubbfc": 25291, "\uc0c1\ucc98": 5456, "##\uc170": 2705, "\ub3c4\ub9e4": 11978, "##W": 2350, "\uba74\uc8c4": 24323, "\ube44\ud654": 20952, "\ud50c\ub780\ud2b8": 20189, "\ubca8\ubcb3": 22408, "\ub294\uad70": 11046, "##in": 3898, "\ubd80\uc0ac\uad00": 29921, "\uc5fc\uc0c9": 11015, "\uc0c1\ubd80": 15344, "##\ubc18\ub3c4": 5315, "\uc2a4\ub2c8\ucee4": 30585, "\uc6d0\uc8fc\ubbfc": 13140, "\ubc97\uaca8\uc9c0": 30854, "\ud329": 1838, "[unused191]": 31691, "\uacbd\uc120": 5918, "\uc2a4\ub9b4": 15314, "\uc2dc\uc2dc": 12754, "\uc218\uc785\uc561": 30607, "\ucd94\uc0ac": 25966, "\ubb38\ud654\uc7ac": 7281, "##ase": 16348, "\ud654\uae30": 19343, "\ubc29\uacf5": 26361, "\ub0b4\uba74": 7422, "\uc0c0": 1241, "\uc610\ub85c\uc6b0": 29221, "[unused240]": 31740, "\u3160\u3160\u3160": 10246, "\ud68c\ub2f9": 27510, "\uc9c8\ub9ac": 22102, "\u6df8": 419, "\uc870\uacc4\uc885": 20537, "\uad50\ub3d9": 24436, "\uc2a4\uce74\ud504": 22251, "##\ub205": 3300, "##\u2606": 3280, "\uba74\uc5ed\ub825": 12963, "\ud765": 1965, "##appy": 30431, "\u82b1": 477, "\uac10\uc2dc": 6315, "[unused318]": 31818, "\uc18c\uc9c8": 19717, "\uc120\ub2e8": 29849, "301": 24910, "169": 18075, "\uc778\ud50c\ub8e8\uc5d4\uc790": 15815, "\uc131\uc9c8": 8615, "\uce74\ub124\uae30": 25820, "\uc218\uba74": 7944, "\uc911\uad6c": 7363, "\ud30c\uc218": 26761, "\uc720\ub2c8": 6695, "##\ub355": 2569, "\uc218\ubc18": 12104, "\uc138\ucd9c": 26655, "\uafb8\uba84": 20389, "\ud325": 1836, "\uace0\ub3d9": 27504, "\ud68d\uae30\uc801\uc73c\ub85c": 16488, "\ubd88\uac70\uc9c4": 14846, "\uc2ac\ub77c\uc774\ub354": 23846, "##\ubc14\uc9c0": 7841, "\ud5e4\uc5c4\uce58": 30350, "\ubcf8\uc2ec": 30542, "##amp": 17856, "\ubc1c\ub77c\ub4dc": 20636, "\ubc1c\uba85": 8883, "\uacf5\uc2e0\ub825": 29975, "\uc5b4\ub5a0": 5520, "DM": 10128, "\uc774\ud63c": 6932, "\uacfc\ub3c4\uae30": 25653, "\uc0b4\uc778\uc8c4": 31329, "\ubc30\ub824": 6465, "\uc4f0\ub808\uae30\ud1b5": 21400, "##\ub098\ubb3c": 10632, "\ub3fc": 857, "##\uce58\ub8cc": 27046, "\uac70\uafb8\ub85c": 10709, "\uc8fc\ubbf8": 29752, "\ub2e8\ud569": 18846, "\ubb34\uc81c": 11885, "\ud669": 1937, "Science": 26548, "\ub2e8\ub3c8": 30691, "\uc7a0\uae08": 25949, "\ub2c8\ub2f9": 22710, "\uc6d0\uc7ac\ub8cc": 17729, "\uac15\ucd94": 18073, "[unused125]": 31625, "##\ub9ac\uc548": 12585, "[unused112]": 31612, "\uc77c\uc120": 9103, "\uba84": 1075, "\ud55c\uc785": 18324, "\uac08\ub9bc\uae38": 21806, "\ud544\ud558\ubaa8\ub2c9": 26241, "\uc6b0\ub7c9": 12048, "\ubc88\ub4e4": 25720, "\ud55c\ub77c": 12335, "\uc774\uc8fc\uc601": 26308, "##\ubcf6\uc774": 10515, "PE": 14282, "\uc774\uacc4": 15552, "\u0435": 104, "\ubd09\ud654": 16013, "\uad6d\ubbfc\uc740\ud589": 10086, "\uc544\ud504": 5032, "\ud569\uce5c": 17884, "\ubd80\uce58": 20568, "\ud558\ub77d\uc138": 11652, "\ub204\ub7f0": 26956, "\uaf3f\uaf3f": 27674, "\uc7a0\uc7ac\uc6b0": 26027, "\ub208\ub728": 27801, "\uc554\ubb35": 24156, "\ub4dc\ub798\ud504\ud2b8": 19038, "\ube44\ucd94": 9695, "\uc778\ud53c\ub2c8\ud2f0": 26247, "\ubd88\uc548\ud574\ud558": 29232, "\uc120\uae00\ub77c\uc2a4": 14692, "##\ud504\ub9ac\uce74": 11544, "\uc624\ud604": 31047, "\ud638\uad6d": 20565, "\ud06c\ub9ac\uc2a4": 5679, "\ubc14\uc824": 29010, "\uae5d": 659, "\ub9e4\ucd9c": 4270, "\ucc39": 1638, "\ubb38\uc9c8\ub7ec": 30172, "\ub0b4\uc57c": 24035, "\uce7c": 1700, "\ud504\ub79c\ucc28": 10002, "##en": 3988, "\uae40\uc5ec\uc815": 29801, "\ub2e4\uc12f": 5437, "AF": 18959, "\uc62c\uc778\uc6d0": 30731, "\uafb8\ubbf8": 11744, "\ubc1c\uc1a1": 11786, "06": 10260, "\ud638\ub0a8": 6409, "\ub2ec\ub824\ub4dc": 30293, "\uce58\ucf1c\ub4e4": 29699, "Su": 21085, "\ud587\ube5b": 10294, "\ub4e4\uc774\ub2e5": 22521, "\ud53c": 1882, "\uc124\uc695": 28100, "\uc815\ubcf4\uc6d0": 12082, "\uc720\ucc30": 27997, "\ud558\ub098\ub2d8": 4820, "##\ub839\uad00": 26516, "\ub77c\uc774\ub354": 26202, "\ubc18\ud558": 13364, "##\u2605\u2605": 23263, "##\uc11c": 2112, "\uc544\uc0b0": 9418, "\ud53c\uc0ac": 25390, "##\ub77c\uae30": 16947, "##\ud588": 2371, "\ud0c4": 1763, "\ud14c\ub9c8\ud30c\ud06c": 12817, "\ubc29\uc0ac": 7531, "\uc554\uc2a4\ud14c\ub974\ub2f4": 30307, "\uc644\uc218": 17787, "\uccad\uba85": 30357, "\ucc3d\uc870\uc131": 25406, "\uae40\uc2e0": 16437, "##\u306e": 2769, "\uc5f0\ud589": 15656, "##\uba48": 3317, "\ub450\ub4dc\ub824": 20976, "\u25a1": 147, "\uac00\ucc3d": 19513, "\uc544\ud508": 7797, "\uad50\uc678": 19474, "\ub545\ubc14\ub2e5": 21601, "\uace0\ud504": 22779, "\uc2dc\ucd94": 22678, "\uace0\uc18d\ucca0": 19707, "\uae08\uc9c0\ubc95": 19722, "##\ub0a0": 2401, "##\uacf5\ud56d\uacf5\uc0ac": 18383, "Ed": 13305, "##\ud68c\uc6d0": 20320, "1923": 24345, "\uacbd\uae30\uc7a5": 6829, "\uc11c\uc0b0": 13205, "\ud758\ub838": 12823, "\uace0\uc18d\ubc84\uc2a4": 23674, "\ubcfc\ub137": 11671, "##\uadf8": 2029, "4400": 31260, "\ube57\uc7a5": 30368, "\uff5c": 1993, "\ub09c\ub3d9": 24404, "##\u2640": 3545, "\uc218\ud608": 21779, "\uae41": 649, "\uc7a1\ud790": 23019, "\ub5a0\uc624\ub974": 6949, "\uc0dd\uc560": 8453, "\uc720\uc815": 13286, "##\uc774\ub3c4": 11768, "\ub80c\ud2b8": 24273, "\uc2a4\uc704": 6799, "##AE": 13994, "[unused477]": 31977, "\ub9cc\ubc1c": 29287, "\uc5d0\uc774\uce58": 29518, "\ubd80\uc790\uc5f0": 29246, "\uc608\ubc30": 9829, "\uc704\uc790\ub8cc": 22363, "\uc678\uc9c0\uc778": 28119, "\uc774\ucd98": 24532, "\uc9e7": 1599, "\ud750\ub978": 16793, "\ubd84\uae30\uc810": 19263, "\ud63c\ub840": 23809, "\ucc9c\ucc28\ub9cc\ubcc4": 25108, "\ud589\uc8fc": 27622, "\ud56d\uc554\uc81c": 20858, "\ub2e4\ub294\ub370\uc694": 29583, "\ubc1c\uc790\ud06c": 31458, "\uc870\ubd80": 26149, "\uc5b4\ucc98": 17185, "\ud574\uc57c": 3645, "\ub4f1\uc9c0": 9134, "\ud658\uacbd\uc6b4\ub3d9\uc5f0\ud569": 21550, "\uad00\uc6b0": 23869, "\uae40\ud3ec": 8152, "\uc720\uac00\uc871": 10459, "\uc6a9\uc758": 24246, "\ub9d0\ub838": 23892, "\ud751": 1959, "\uadc0\uc5ec": 7580, "\ub530\ub0b8": 21543, "[unused398]": 31898, "\uc560\ub3c4": 18928, "\ucad3\uaca8": 10781, "\uc138\uc77c\uc988\ub9e8": 20748, "\uba85\ucc3d": 25860, "\ubb34\uac70": 12746, "\uc18c\ud68c": 24843, "\uc0ac\uacf5": 29190, "\uc2ec\uc9c0\uc5b4": 5929, "\uc918\ub3c4": 21982, "##ock": 14454, "\ub178\uba74": 25788, "\ub300\ucd9c\uae08": 16708, "\uad70": 617, "127": 15057, "\uc804\uc9c0\ud6c8\ub828": 17525, "##86": 24803, "##\ud765": 2285, "##\ubc49": 3579, "\ud558\ub8e8": 4051, "\uc804\uc14b\uac12": 20272, "\uac11\uc791\uc2a4\ub7fd": 17291, "\uacf5\ubc31": 9718, "##\ub780\ub4dc": 6084, "##\uc0e4": 2598, "\ubc1c\uc544": 29336, "\ud1b5\uce6d": 29415, "\uc5c4\uaca9": 7233, "\uc544\uc2a4": 8967, "\uae40\ubd80": 15182, "\uad74\uc695": 17245, "\uc778\ub958": 5865, "##\uc9f8": 3135, "\u318d\ube44": 27096, "KDI": 18741, "\ub9db": 1045, "\uc231\ud55c": 15833, "\ud798\uaca8\uc6b4": 19017, "\ud648\ub7f0": 5874, "\uae30\uc6b8\uc778\ub2e4": 29885, "\ub370\ub824\uac00": 14517, "\uace0\ud0dd": 23223, "\ubbfc\uc601": 9375, "\uad50\uc2dc": 19468, "\uc54c\ub809\uc0b0\ub4dc\ub9ac\uc544": 29428, "\uc2e4\ub9dd\uac10": 22585, "\ub300\ub3c4": 19370, "650": 17731, "\ub300\ud0c0": 15679, "##\uc778\uad8c": 30315, "\uc9c1\uc5c5": 5116, "\ud070\uc18c\ub9ac": 27772, "\uae40\uc131\uc218": 24704, "\uc2a4\ud29c\uc5b4": 19044, "\ud658\uae09\uae08": 31268, "\uacc4\uce21": 30459, "\uc778\ub514\uc5b8": 14734, "\uc885\ubaa9": 5260, "\ubd80\ub3c4\ub355": 26126, "\uc120\uc2ec": 24870, "##\ubc29\uc704": 24896, "\ubc0d": 1115, "\uc11c\ud604": 19663, "##\uc2f8\uc6c0": 10957, "\uc190\ubc14\ub2e5": 10578, "\uc774\uad70": 29764, "\ud55c\uae38": 26181, "##\ub2d8": 2098, "1985": 10665, "\ud30c\uc774\ud305": 21317, "\u6c34": 411, "\ucc3e\uc544\uc640": 11983, "\uace4\ub450\ubc15\uc9c8": 26634, "\ub354\uad70\ub2e4\ub098": 15069, "##ulation": 31471, "\ud64d\uc775": 16135, "\uc720\uacf5": 12913, "\uc9c0\uba74": 11684, "\uac04\uc9c1": 9715, "\ub04c\uc5b4\ub4e4\uc5ec": 22576, "\ub3c4\uc6b4": 25702, "\uc0ac\ub77c\uc9c0": 6293, "##EST": 21511, "\ubd09\uc0b0": 25589, "\uc5d4\ud130": 8047, "\uc790\ub124": 6225, "\uc785\ub825": 9489, "##CO": 14494, "\ud68c\uc758\uc7a5": 16952, "\uc678\ub85c\uc6c0": 14090, "##\ud55c": 2470, "\ube44\uaf2c": 24702, "[unused299]": 31799, ":": 30, "stud": 28093, "\uc600\uc5c8": 26723, "\uc790\uba74": 5717, "\uc790\uc720": 3936, "\ub099\ud558": 12805, "\uad50\ub958": 5459, "\ub808\uc77c": 16876, "\ud55c\uc794": 10897, "\uc2f1": 1334, "\uc870\ub2ec\uccad": 20635, "\ubc30\uc124": 17502, "\uae00\ub85c": 4255, "\uc6b8\uc8fc\uad70": 17507, "\uc874\ub9bd": 20613, "\uc2dc\uc804": 31284, "##\ub300\uad50": 12419, "\uc0c1\uc5c5\uc2dc\uc124": 20698, "\ube0c\ub7ec": 20802, "##\uc228": 3070, "##\uac15": 2280, "\uccab": 1656, "\uc2e0\uae30": 6714, "##etter": 29821, "\uc5b4\uc720": 26394, "\ubd81\uc1a1": 29267, "\ubca0\ub780\ub2e4": 17996, "\ub301": 824, "\uacac\uc801": 25867, "\uad6c\uae09\ub300": 29932, "\uc591\ub150\uc7a5": 24038, "\uc7a5\ub3d9\uac74": 27039, "\ud669\uc11d": 29508, "\ubbf8\uac04": 21932, "\ud1b5\ud588": 22154, "\uc720\ubb3c\ub860": 31472, "\ucd1d\uacbd": 28843, "\uc5b8\uc2a4": 12185, "\ub054": 708, "\uad8c\ud0dc": 20039, "##at": 4493, "##orm": 27751, "\ucf54\ub4dc": 7711, "\uce7c\ube48": 27062, "##sych": 22717, "\ucd08\uc778": 19801, "##\ubc1c": 2311, "\uc548\ud0c0\uae4c\uc6c0": 17055, "\uc190\ub140": 17662, "4200": 29856, "\ube44\uad00": 12834, "\ud30c\ud06c": 6534, "\uc694\uc988\uc74c": 17466, "\ud558\uae34": 15029, "##ruct": 27000, "\ub2f4\ub300": 31013, "IBK": 16195, "\ub300\ubbf8": 16694, "##\ubbff": 2560, "[unused25]": 31525, "\uc9c4\ud654": 6747, "\uad6c\ub0b4": 21214, "##\ub0ae": 3264, "\uac00\uc790": 21721, "\uc5c9\ub6b1": 10323, "\uc0c1\ub2f4": 4981, "\ub5a0\ub0a0": 10428, "\ub9e4\ub2ec\ub824": 14278, "\ud0c0\uc810": 9167, "\ubc14\uc05c": 9064, "\ubcf4\uc77c": 6441, "##\uaf49": 3599, "\ub300\ubc95\uc6d0\uc7a5": 13777, "\uaf3d\ud614": 14319, "\uc564\ub354\uc2a8": 25954, "##\uc9c0\uc5c4": 15697, "[unused458]": 31958, "\ube80": 1204, "BS": 19523, "##\uc2ed\uc2dc\uc624": 14924, "##\ub9e4": 2077, "\ub9f9\uc218": 28921, "\uc5ed\uacbd": 18248, "\ud06c\ub9ac\uc2a4\ud1a0\ud37c": 27763, "##\ucf54": 2258, "\uc99d\uc815": 8896, "\u6b64": 404, "\uc644\uac15": 19996, "\uae68\uc6cc": 28365, "##\ub974\ub178": 22588, "\uc99d\ud6c4": 11430, "\ubd88\uae30": 19924, "\uc900\uac70": 25789, "\ud2b9\uc0c9": 12580, "\uc548\uc131": 9393, "\ucd98\ucc9c": 8109, "\uc88b\uc544\ud560": 26020, "\uc544\ud06c": 14005, "\uc5ed\uc0ac\uac00": 19543, "\uc784\uc885\uc11d": 30251, "\uc790\uc5f0\ud658\uacbd": 15076, "\ud0a4\ub85c": 6578, "\uc123\ubd80\ub978": 29402, "\uc190\uc9d3": 16863, "\uc7a5\uc2e4": 24828, "\ubc29\uae00\ub77c\ub370\uc2dc": 23721, "\uc740\ubc00": 13663, "##\ub3c4\uc5b4": 11369, "\ud55c\ud654\uac74\uc124": 28103, "\uc774\uc5b4\uc9c4\ub2e4": 10231, "##\uace0\uc2dc": 25111, "\ub9c8\uc778": 25909, "\ud558\uc704": 7792, "\ubabb\ud574\uc11c": 17493, "\ubd84\uc7c1": 6933, "\ud568\ubab0": 30526, "\ubc1c\uc5f4": 19392, "\uc11d\ud68c": 22707, "\ucc14": 1628, "1919": 18548, "\uc774\ub77c\ud06c": 8934, "##\uc138\uc774": 11205, "\uac70\ub290": 21713, "\uc5ff\ubcfc": 13365, "\uc2a4\ud1b1": 13637, "\uc55e\uba38\ub9ac": 24819, "0": 20, "\uc608\uc815\uc77c": 31291, "\ubb3c\uac00": 6136, "\uc790\ub825": 22234, "\ubc18\ub4ef": 19895, "\ud0c8\ub808": 22986, "\ubd84\uad50": 25796, "\uc5d4\ub4dc": 26256, "\uc591\uad6c": 20517, "\uc2dc\uc704\ub300": 13723, "[unused453]": 31953, "\uc720\ub85c": 7084, "\ud615\uc218": 18580, "\uad8c\ub9ac": 5114, "##\ud1b5\ud654\uae30\uae08": 19366, "\ubb54": 1098, "\ud53c\uce74": 18029, "\ubc24\uc0d8": 25151, "\uc2a4\ud3ec\uce20\ud1a0\ud1a0": 18887, "\uc5f0\uc1c4": 12653, "\ud45c\uc2dc": 5354, "\uad70\uc8fc": 10374, "\uc695\uad6c": 6765, "\ud558\ub4f1": 31315, "##\ub2c9\uc2a4": 9097, "##\uc2e0\ubb38": 10000, "##\ube68": 2919, "\ud398\ub110": 16224, "\ubcf4\uc218": 4687, "\uacbd\uccad": 15079, "\uad6c\uae30": 24422, "\uc694\uac83": 26489, "\uc815\ucde8": 20087, "\ubaa8\ub294": 31328, "\ud3c9\uba74": 13438, "##\ubabb": 2495, "\ubc1c\uad74": 5681, "DGB": 23762, "\ud30c\uc774": 6440, "\ubc1c\uc721": 29561, "\ucc9c\ud638": 23366, "\ub300\ucd95\uc81c": 28833, "\ubcf4\uc628": 16800, "##\uc5bb": 2939, "\uac00\ubb38": 9459, "28": 4232, "\ub2ec\uc9f8": 28690, "1906": 25957, "##\ub978": 2202, "MBA": 14945, "\uc5ed\ud589": 19357, "\ud30c\ud30c": 19555, "\ub4a4": 873, "\ub9dd\uac01": 14915, "\uc815\ubd80\uad70": 23120, "\uc9c4\uc5d0\uc5b4": 23995, "\uad50\uc9c1\uc6d0": 12936, "\uac00\uc9dc": 8711, "\ud2b9\ud5c8\uccad": 26065, "##\uc2dd\ubb3c": 17487, "\ubb61": 1100, "\ub4dc\ub9b4\uae4c\uc694": 31392, "KBL": 22550, "\ubd80\ub514": 16321, "\ub514\uc2a4\ud06c": 10946, "67": 6769, "\uc628\uc804": 14109, "\ube44\ube54\ubc25": 15764, "##\uc911\ub3c5": 20644, "\ub098\ub4e4": 20214, "##\ubcc0\uc774": 26740, "1994": 7756, "\uc804\uc5c5\uc8fc\ubd80": 30760, "\uc785\uc18c\ubb38": 13675, "\ucd08\ub2f9": 20523, "\ub2e4\uc774\uc544": 11446, "\uc50c\uc6b0": 27391, "\ucd08\uae30": 5100, "\uc9c0\uc9c0\ubd80\uc9c4": 17416, "\ud5c8\ubc85": 13065, "\ub18d\ud611": 6470, "\ubcd1\ub3d9": 20942, "##\uc4f4\uc774": 30652, "\uc7ac\ub2a5\uae30\ubd80": 20598, "##\ud83d\ude0d": 2805, "U": 57, "\uacf5\uc7a5\uc7a5": 25478, "##res": 24757, "\uac1c\ud68c": 18232, "##\uc796": 2513, "\ucc98\ud558": 14674, "\ud758\ub7ec\ub098\uc654": 19034, "\ubcf4\uac74": 5308, "\uace0\ub839": 6553, "[unused82]": 31582, "\ud6a1\uc131": 30912, "\ucda9\uc2e0": 27971, "\uc740\uadfc": 10666, "[unused53]": 31553, "\uacf5\uc548": 13164, "\ucc28\uc774": 4193, "\uc778\uc2b9": 19066, "no": 19665, "\ub385": 846, "\uc73c\ub824\ub294": 8847, "\u8a9e": 496, "\ube44\uc728": 4657, "\u321c": 201, "##\ub178\ub2f9": 21302, "\ub9c1\ud06c": 12337, "\ub2e4\uc6b4\ub85c\ub4dc": 14071, "\u9751": 530, "\ud0d5\uc218\uc721": 23280, "FIFA": 13027, "##\ud3b4": 2761, "\uad6c\uc124": 23330, "[unused69]": 31569, "\uc81c\ub300\ub85c": 4239, "\uc11c\ud074": 21189, "##its": 26278, "\uceeb": 1713, "\ud14c\uc2a4": 22952, "\ud488\uc808": 29599, "\ub0b4\uc6a9\ubb3c": 20586, "\uc790\uc0b0\uac00": 21774, "\uc5ec\uc758\uce58": 22292, "[unused216]": 31716, "\uac00\ub97c": 29361, "\ubbf8\uc8fc": 12957, "\uc694\uc9c0": 15130, "\ub3d9\ub5a8\uc5b4\uc9c4": 23135, "\ud48d\ubd80": 6007, "\ub9c8\uc74c\ub300\ub85c": 10610, "##\uac81": 2824, "\uc74c\ub825": 21553, "\uadf8\ub798": 3672, "71": 6980, "\uadf8\ub9bc": 4238, "\ud750\ub9bf": 21884, "\uc0dd\uc874": 5898, "\ud638\uac10": 12483, "\uadf8\ub9ac\uad6c": 24310, "\uc790\uc774": 10772, "\ub358\ub370\uc694": 22005, "\uc2b9\ub099": 18751, "\ub300\ud589": 7162, "\ubcf4\uc774\uc2a4": 14369, "\uacf0\uacf0\uc774": 20230, "\ub204\uad70\uc9c0": 16427, "\uc2e0\ud0dc\uc6a9": 23946, "\ud578\ub514": 26718, "\uc218\uc0c1\uc790": 9752, "\ub808\uc778\ubcf4\uc6b0": 30181, "\ud604\uc218": 11294, "\ub18d\ucd95": 12576, "\ubc14\uc704": 7076, "\uc9c4\uc555": 10885, "\ubb34\uc5bc": 18222, "\uc2a4\uc704\uc2a4": 8251, "\uc778\uc218\uc704": 16888, "\uc774\uad11": 11309, "\uacb0\uc2b9\uc120": 30400, "\ub113\ud614": 22505, "\ucc28\uc6a9": 18633, "\uacbd\uc0c1": 7463, "##\ucac0": 2566, "\ub9cc\ud68c": 16037, "\ub18d\uc791\ubb3c": 17728, "\uc704\uc988": 21040, "\uc18c\uadf9": 9004, "##\ubb34\uc6d0": 4473, "\ube48\uace4\uce35": 21053, "\ubd88\uc21c": 18705, "Journal": 18141, "\ubb34\uacf5": 13211, "\uacac\uacfc": 19706, "490": 29084, "\uadf8\ub7ed\uc800\ub7ed": 24009, "\uc911\uc559\uc120": 17977, "[unused197]": 31697, "\uc774\uc815": 6573, "\uc601\uc18d": 27515, "\ud3f4\ub9ac\uc5d0": 28887, "\uac8c\uc7ac": 9510, "##\uc77c\ub2f5": 29347, "\ub3d9\ubc31": 16019, "\uc544\ub3d9": 5332, "\ub818": 978, "\uc5ec\uc8fc\uc778\uacf5": 18104, "\ub0a0\uc544\uc628": 29899, "\ud558\uce35": 23242, "\uc0bc\uc131\ubb3c\uc0b0": 10745, "[unused237]": 31737, "\uc544\ub85c": 17217, "46": 5732, "##\uc774\uc158": 4632, "\uc784\ucc28\ub8cc": 30237, "##ical": 12227, "\uc721\ubc15": 10760, "\ucc98\ud560": 27532, "\ub3d9\uc131": 9261, "##\ud0a4": 2089, "\ud398\ub110\ud2f0": 18316, "\uc2e0\uc124": 6039, "\uc219\ubc15": 8134, "\uadf8\ub9ac\uc2a4\uc778": 26957, "\ud558\ub3c4\uae09": 12361, "\uc18c\uc601": 26678, "\ub809": 975, "\ub8f0": 1005, "\uac70\ub984": 26154, "##\ubc29\uc1a1": 12821, "##\ud30c\ub78c": 25071, "##\ucc45": 2558, "\ucef4\ud4e8\ud305": 22371, "\ucd5c\uc2dc": 28246, "\ubab0\ub77d": 11619, "\ub450\ud1b5": 18844, "\ucc28\uc9c0": 4286, "##ize": 30900, "\uc11c\uc2dd": 10667, "\uc0bc\ucd0c": 12495, "\uc1a1\ud3b8": 28358, "\ub300\uc0c1": 3756, "\ucca0\ud0d1": 28123, "\ucd9c\ud604": 9526, "\ubd80\ud480": 10372, "\uce58\uba85": 9848, "\uad90": 628, "##\ud0ec": 3212, "##\ub367": 2932, "Br": 15502, "\uc598\uae38": 13524, "\uc7ac\uace0\ub7c9": 30689, "##99": 19748, "\uacf5\ubaa8\uc8fc": 22571, "\uad70\uc218": 6942, "\uad50\ubcf5": 12384, "\ub192\uc778\ub2e4": 20275, "\uccb4": 1658, "\uc870\uadf8\ub9cc": 11523, "\uadfc\uba74": 24848, "\uc77c\uc6d0": 7708, "##\uc5b5": 2028, "\uc544\uc26c": 5835, "\ub098\uc5f4": 15346, "\ub4c0\uc5e3": 30705, "\ub808\uc774": 5395, "##ly": 10567, "\uac2f\ubc8c": 13465, "##ED": 6730, "\uc544\ub2e4": 29481, "##\ub315": 3180, "\uc9c0\ub098": 3984, "\uad11\uc0b0\uc5c5": 30591, "\uc0ac\ub9bd\ub300": 22589, "[unused234]": 31734, "\uc288\ud37c\ub9c8\ucf13": 14463, "ESP": 29148, "\ubb54\uac00": 5079, "\uc544\uc6c3\uc18c\uc2f1": 26862, "\ud53c\uace0": 8305, "\uc77c\uad88": 18696, "\uc131\uacb0": 29556, "\uc5b4\ub8b0": 21538, "\uacbd\ub3c4": 20764, "\uc878\uc5c5": 4934, "\ub3cc\uace0\ub798": 19815, "\ubcf8\uc810": 12195, "\ub208\uc9d3": 31460, "\uc774\ub904\ub0c8": 26139, "\uc6d0\ud558": 6422, "\uae30\uce58": 20772, "\ub4dc\uc2e0": 28981, "\uacbd\ubbf8": 22061, "\ucc3e\uc544\ub2e4\ub2c8": 17121, "\ud55c\ucabd": 6986, "\ubc15\uc950": 25077, "##\ud64d": 2453, "\uc9c0\uc790": 5407, "\ub808\uc988": 23541, "##\uad70\ub370": 22992, "\ubb34\uc791\uc704": 21951, "\uadc0\uc871": 8171, "\ud2b8\ub798\ud53d": 25554, "\ubc15\uc6d0": 9855, "\ubd80\uacfc": 6274, "\ub3d9\uae09": 19097, "\uad50\ub780": 18854, "\ubcfc\uc77c": 19681, "\uc774\uc801": 10093, "\uc6b4\ub3d9": 3815, "##\uc2e0": 2250, "\ub2e4\uc774\uc5b4": 5388, "\uc811\ubaa9": 9076, "\uc7ac\ud611\uc0c1": 18022, "\uc9c0\uac01": 8955, "\ub3cc\ub9ac": 6477, "##\uac00\uc744": 29473, "\ub2e8\ub9d0\uae30": 10551, "##EZ": 28091, "\uc9c0\ub098\uac00": 7129, "##\uba54\uc774\ud2b8": 27918, "\ub300\ud559\uc0dd": 6120, "##\ubaa8\ub2c9": 26190, "\uac04\uc5fc": 17568, "##\ubca0\uc774": 10019, "\uad6c\ud55c\ub2e4": 28613, "foodstagram": 19189, "\uc774\ud669": 24101, "\uc544\uc2a4\ub110": 21865, "\uce21\uba74": 4859, "\uc0ac\uc6b0\ub514": 13713, "\uae5c": 658, "\uad70\uc790": 17380, "\uc77c\uc0c1": 4553, "\uc724\ud65c": 22708, "\ub04c\uc5b4\uc62c\ub9ac": 11847, "\ub370\uc774\ud2b8": 8698, "##\ub9f7": 3187, "##tt": 7742, "\ub9c8\ucf00\ud305": 4852, "\uc808\uae30": 25321, "\ubd80\ub450": 13745, "\uace7\ubc14\ub85c": 6675, "\ud76c\ub9dd": 4396, "##\uc5d8": 2843, "\uc720\uaca9\uc218": 18132, "\ucd9c\ub825": 11232, "\ub3d9\uacc4": 8391, "\uc785\ud559\uc2dd": 30928, "\uc8fc\ub984": 8608, "##\uc058": 3175, "\uadf8\uc5b4": 28215, "[unused409]": 31909, "\ucc2c\ub780": 15878, "\ucd08\ucf5c\ub9bf": 10524, "\ubc11\uadf8\ub9bc": 22935, "\uc544\uc774\ud30c\ud06c": 16611, "\uc2e0\uc0dd\uc544": 15181, "##us": 5722, "\uaf2c\ub9ac": 8358, "\uc21c\ud0c4": 20476, "\ub6f0\uc5b4\ub4e0": 17460, "\uac1c\uc5c5": 17583, "\ubcf4\ud638\uad00": 26982, "\ud1a0\ud06c": 9157, "##orge": 29603, "\uadf8\ub7ec\ub2e4": 14176, "\ud45c\uc900\uc5b4": 27482, "##\ud1a8": 2777, "\ub9c8\ud0dc": 23932, "\uc5b4\uc6b0\ub7ec\uc9c4": 14581, "\ubd80\ud1b5\ub839": 17352, "\uc18c\uc0ac": 15128, "##\ub4c0": 3076, "\uc2e4\uc815": 7123, "\uadf8\ub9cc\ud55c": 30914, "##R": 2107, "\uc778\uacc4": 21518, "\ubc31\uc2b9": 28835, "\uce74\uc790\ud750": 18578, "\ubb3c\ub824\ubc1b": 15115, "\ub808\ub2cc": 16145, "\uace0\uc9d1": 8063, "\uae08\uc5f0": 10916, "##\ucc3d\uc218": 22540, "\uc555\ub85d": 21241, "\uc74c\uc591": 18417, "\ub300\uc138": 9648, "\ubd05\uc2dc\ub2e4": 15177, "##\uc790\uc640": 31405, "\uc99d\uc5ec\uc138": 17032, "\uac80\ucd9c": 11112, "\uc5f0\uad6c\uac1c\ubc1c": 30908, "\uc5d0\uc2a4\ud504\ub808\uc18c": 27912, "[unused189]": 31689, "\uc778\uc0c1": 4344, "\uc774\uc775": 4259, "\ubab0\ub824": 6339, "\ucc22\uc5b4\uc9c4": 28524, "\uc81c\uac08": 14730, "\ubcc4\ub3c4": 5614, "\ub3fc\uc654": 24112, "\uc544\uc11c": 4111, "\ud1f4\uc784": 12408, "\ub3c4\uc0ac": 16042, "\ubd80\ub4e4": 21921, "\uacbc": 590, "\uc557": 1385, "\ub4e4\uc73c\ub2c8": 25967, "\ud130\ud2b8\ub838": 24408, "\uc54c\uace0": 22819, "\ud55c\ud654\uadf8\ub8f9": 19442, "\uc154\uc11c": 7133, "\uac1d\uc6d0": 29998, "##\uc704\uc6d0": 8956, "\uadf8\ub824\uc84c": 23096, "\uc804\ubb38\ub300": 18704, "\ud658\uc804": 17293, "##\ud130\uce74": 17476, "\uc548\ucca0\uc218": 6577, "\ud6c4\ud6c4": 20554, "\uc2a4\uc640": 16624, "\uc608\ub8e8\uc0b4\ub818": 15415, "##\ubf08": 2865, "\ucd1d": 1668, "\uc138\uacc4\uc778": 14716, "3200": 24760, "\ud55c\ud574\uc11c": 28900, "\ud615\ubd80": 26378, "\uba38": 1058, "\uc62c\ub77c\uc628": 13289, "##\uce89\uc2a4": 22626, "##\uc774\ud130": 4521, "\uc5d0\uc2a4\ud30c": 26240, "\uacfc\ud559\uad00": 26710, "\uacb0\ub82c": 18583, "##\uc2b9\ubd80": 15756, "\ucd94\uc2a4\ub974": 29093, "Commun": 19949, "##\ubc00": 2531, "\uba85\uc0c1": 11364, "\ud058": 1749, "\uc560\uc778": 9757, "##\ubb3c\uc0b0": 10696, "\ud655\uc778": 3915, "\ub0b8\ub2e4": 8737, "##HD": 14241, "\ud30e": 1828, "\ubd84\ub2f9": 8145, "\ud2f0\ubca0\ud2b8": 15636, "\uc554\ud638": 13149, "\ud734\ud559": 25137, "\uc804\uc2b9": 12284, "\uc804\ud574\uc84c": 6923, "##ist": 8162, "##\ub808\uc77c\ub9ac\uc544": 25573, "\ubc14\uae65\ucabd": 18639, "\uadfc\uc2ec": 13888, "\ucc99\ucd94": 9956, "\uba70\ub290\ub9ac": 10272, "\uc744\uc0ac": 29857, "##\uc0b0\ubd80": 10302, "\ub9c8\uce74": 15409, "\ube8f\uae30": 29116, "\uae30\ub9d0\uace0\uc0ac": 28256, "\u8b70": 500, "\ud3ed\ub3d9": 19487, "\uc11c\uac15": 13787, "\uc720\ud1b5\ub9dd": 22416, "\ub355\ubd84": 5522, "\uc70c\ub9ac": 10193, "\ubbf8\uc628": 23712, "##\ud301": 3435, "\ucc28\uc120": 12092, "\uc608\uc220\ub2e8": 20459, "##\uc5f0\uc2dc": 29238, "\uc2e0\ubb38\uc0ac": 11613, "\uc30d": 1342, "\ucd08\ubbf8\uc138": 23382, "[unused396]": 31896, "\ub098\uc544": 8242, "\ub514\ub51c": 29528, "##\ubc43": 2861, "\ub108\ub77c": 27045, "\ub784\uae4c": 14460, "\uc190\uc544": 18063, "##\uc98c": 3179, "\uc758\uc220": 25110, "\uc7a5\ud56d": 28464, "\ub098\uc8fc": 11666, "\ud14c\ud06c": 6532, "\uac8c\uc73c\ub978": 29505, "##\ub2f4": 2408, "\uc218\ud574": 21325, "\ubc18\uaca9": 12727, "\ub9c8\ub294": 17225, "\uc0b0\uc0ac": 29606, "\ub41c": 860, "\ud15d": 1790, "##95": 21946, "\ubd80\ub985\ub2c8\ub2e4": 29925, "\ube44\ube44": 11749, "\uc2a4\uce74\uc774": 10500, "##ut": 6449, "\uccad\ub2f4": 14595, "\uc804\ub9bd": 16744, "\uc790\ubabb": 27390, "\ub0b4\ud64d": 28983, "\ub098\ud0c0\ub0ac": 4432, "\uc790\uc5f0\uc0ac": 29773, "\uc9c0\uaec4": 22912, "\uc911\ub860": 27157, "##\ub7fc": 2731, "\ubb34\ub108\uc84c": 15091, "\uc0c8\ud30c": 29632, "\ub2e4\ub2e4\ub790": 30323, "\uc810\ub839": 9013, "\uace0\uad6c": 6495, "Frank": 29774, "\uc8fc\uc5b4\uc838": 28660, "##\ubc84\uc12f": 14338, "\ucd08\uc911": 20823, "\ub0a0\uc544": 7272, "\ubc8c\uc774": 5440, "\ud53c\ud06c": 13467, "\ub300\ud1b5\ub839": 3698, "\ud0c4\uc2dd": 16839, "\uc74c\uc545\uc778": 27148, "##ud": 8844, "##\uac1a": 3382, "\uc740\uac00": 8280, "\uc548\uacbd": 8479, "\ud558\uc774": 4899, "\ud63c": 1928, "\uc9c0\uc18d": 4115, "\uc138\ud2b8": 5360, "\uc640\uc758": 14646, "\uc720\uba85\ubb34\uc2e4": 27817, "\uc9c0\ubc30": 4831, "\uc5b4\ub77c": 8078, "\uc2a4\ub178\ubcf4\ub4dc": 31276, "\ub180\ub77c": 5061, "\ucd5c\uace0\uac00": 26408, "\ub9c8\uc774\uc2a4\ud130": 21026, "\ubcf8": 1163, "\ubc8c\uac70": 22494, "\uc5ec\uc9c0\uc5c6\uc774": 27112, "##\ucf85": 3480, "##97": 24784, "\uc2e0\ub4dc": 23023, "\uc815\ubc18\ub300": 12750, "\uc0e4\uc774": 21109, "\ubb38\uc804": 21581, "\ub3c4\ud558": 26081, "\ub125\uc2a4\ud2b8": 28538, "\ub0b4\ub824\ub2e4\ubcf4": 12301, "\uc544\ud2c0": 23705, "\ud3ec\ub9f7": 22760, "\ud5cc": 1907, "\uc2dc\ub098": 8094, "\uc544\ud504\uac00": 16740, "\uc601\uc0ac\uad00": 29281, "\ub180\ub9ac": 17845, "\uc81c\uacfc": 18289, "\ub2f4\uc218": 22156, "\uc5ec\uacbc": 11469, "194": 5642, "\uc778\uc1c4": 9017, "\uad7f": 623, "##\ubd99": 2971, "##ane": 27497, "\uc774\uc9c1": 18995, "\ub9c9\uc0ac": 26790, "\uc5c6\uc560": 6697, "\ud544\ub77c\ud14c\uc2a4": 25018, "\uc2a4\uc704\uce58": 17285, "\uac01\ub8cc": 20409, "##46": 23406, "\uccad\uc640": 4447, "\uc720\ub2c8\ud06c": 21025, "\uc2a4\ud3f0": 13481, "##bid": 20161, "\uae30\uc5c5\uc778": 10167, "\uce98\ub9ac\ud3ec\ub2c8\uc544": 10771, "Part": 23660, "\ud574\uc2dc": 24998, "\ud138\uc5b4": 13886, "\uc0ac\ubb34\uc5d8": 28980, "\uc7a0\uc790\ucf54": 24017, "\ud3c9\ud3c9": 22048, "\uc9c1\uc5c5\uc778": 30052, "##\ub8f8": 3117, "OE": 9442, "\uacb8\ube44": 16329, "\ub959": 1014, "\ud30c\ud5e4": 13544, "[unused149]": 31649, "\uc65c\uace1": 7399, "##\u25b6": 3086, "##\ub801": 2555, "\ud68c\ud654": 10299, "\ub9de\ub300": 9207, "##\ube59": 2604, "\uc624\ub9ad\uc2a4": 26700, "##\ub084": 3146, "1895": 26759, "\ucd5c\uc801\ud654": 31465, "\ub2e4\uac00\uc624": 7865, "\ubd88\uae30\uc18c": 28953, "\ubcb3": 1152, "##\ub178\uc870": 31143, "\uac00\ub85c\uc9c0\ub974": 20681, "\ud55c\uaca8\ub808": 10304, "\uafb8\ub824": 11099, "NH": 8933, "\uaca8\ub8e8": 15526, "\ucc38\uace0\uc11c": 28372, "\ub2ec\uc544\ub098": 13946, "\uc5f0\ubd09\uc81c": 22664, "\uc544\ub2c8": 3614, "\uc815\uc608": 18676, "\ub294\uc9c0\uc694": 21198, "\uc8fc\uc720\uc18c": 9926, "##\uc784\uc790": 14641, "\uadf8\ub7f4\uae4c\uc694": 31255, "\uc815\ud55c\ub2e4": 22295, "\ub0b4\ube44\uac8c\uc774\uc158": 16939, "\uac00\ub054": 6238, "[unused95]": 31595, "\ud3c9\uac00": 3777, "\ubcf4\ud638": 4216, "\ucee8\uc149": 13156, "\uba54\uc2a4": 22172, "\ub098\uc640\ub3c4": 29164, "\uc800\ub110\ub9ac\uc998": 17197, "\uc2ec\ub3c4": 16951, "\uc5b8\uc11c": 27282, "[unused188]": 31688, "\uc870\uc120\uc5c5": 15018, "\uc545\ubb3c": 21937, "\ub54c\ub9c8\uce68": 19416, "Soc": 14776, "\uc624\uc2b9\ud658": 16057, "##\uccb4\uc778": 18255, "\ucd5c\ub3d9": 24544, "\uc11c\uc9c0": 24809, "\ubcf4\uc2a4\ud134": 14140, "\ub178\ud68c": 17539, "\uba85\ub791": 20165, "\ubc18\uc785": 15533, "\uae4c\ub2e4\ub85c\uc6b4": 14775, "##\ucc9c\uc2dc": 7416, "Ag": 19738, "\uad6d\ubbfc\ub300": 22541, "\ud0f1\ud06c": 11579, "\ubbf8\ud589": 26870, "\u672a": 391, "\uc591\ubc29": 20383, "\uac00\uc9c0": 3663, "##\uc9dc\uace0": 28430, "\ub5a8\uc5b4\ub728\ub838": 25130, "\uc790\uc2dd": 5428, "##amil": 27538, "\uc544\uadc0": 30304, "\ud0c0\uc774\uac70": 13136, "\ud3c9\uade0": 4233, "\ub09c\uc0dd": 24448, "##\uc9c4\ub2e4\uba74": 25241, "\ub2f4\uae34": 6926, "\uac74\uac00": 7582, "\ub9c8\uc6b4\ub4dc": 10755, "\ub300\ub839": 14284, "\uc7ac\ub8cc": 5600, "\uc0ac\uc720": 5880, "\uc131\uc758": 20581, "\uc591\uc7ac": 16043, "\ud2b9\ubcf4": 14258, "\uc885\uc804": 8885, "\ucd94\uc815": 5521, "\uae30\uc785": 22373, "130": 8898, "##\ubc84\ub465": 25559, "\ube14\ub85c\ud0b9": 23304, "\uc77c\ud68c\uc131": 23218, "\uc694\uac00": 14657, "\uce58\ub8cc": 4159, "\ud6c4\ubcf4": 3733, "\uc57c\ub2e8": 15335, "\uc5f0\ubcf4": 30907, "\u318d\uacbd\uc81c": 26360, "##60": 9616, "\ud30c\ud2b8\ub108\uc2ed": 18108, "##\uaecc": 3350, "\ub113\ud788": 11673, "\u3164": 199, "\uae30\ub150\uc0ac\uc5c5": 18037, "\ud50c\ub808": 20940, "##\ub179": 2912, "\uc778\ud615\uadf9": 29239, "\uc544\ubbf8\ub178": 19467, "\uc810\uc2ec": 5961, "\ub118\uacbc": 11391, "\uccad\uc790": 15928, "\uc99d\uad8c\uc0ac": 7685, "\ub118\uc5b4\uc124": 18271, "\uc18c\uc9c0": 7750, "\uc0ac\uacfc\ubb38": 26053, "##ah": 13654, "\uc5f4\ud48d": 9441, "\uc9c4\uc791": 12425, "\uc73c\ub85c\uc120": 18326, "##\ub9ac\uadf8": 17665, "\uc9d1\ub150": 24942, "##\ube60\uc9c4": 28183, "\ub0a8\uae34\ub2e4": 28646, "##\uc824\ub85c": 30697, "\uc2e0\ucc3d": 26846, "[unused31]": 31531, "\uc800\ubc84\ub9ac": 23400, "\ube7c\ub193": 10534, "\ubc31\ub450\uc0b0": 16407, "\ub2e4\uc624": 31130, "\uc0ac\ub2e8\uc7a5": 29993, "\uc751\ubaa8": 11754, "\uacb9": 589, "\uc870\uac01\uac00": 24743, "\uc0b4\uc778\ubc94": 24080, "\ubbf8\ub124\ub784": 16493, "\uac00\ub77c\uc549": 9065, "\uc0b4\ub9b0": 14988, "\ub450\ub824": 5337, "\uc5ec\uc18c": 25888, "\ucc38": 1637, "\ub0a8\ub2e4\ub974": 20730, "\ucf69\ud325": 30904, "\uc57c\ub9c8": 15523, "\ubd80\ub7ec\uc6c0": 23718, "\ub3d9\ud654\ucc45": 24045, "[unused289]": 31789, "dog": 15238, "\uc5d8\uc9c0": 17360, "##\ubb34\uc7a5": 17286, "\uc5b4\ub5a4\uac00": 15682, "\ub3c4\ub8e8": 15132, "##\u0441": 2462, "##\uc6e8\uc5b4": 6617, "\uc870\uad11": 16092, "\ubb38\ud654\uc6d0": 16386, "mod": 23269, "\uac10\uc2dd": 24566, "54": 6059, "\ub09c\uc0c9": 24513, "##\ub544": 3593, "\uc720\ud559": 6723, "\ud53c\ud074": 29591, "der": 16859, "\uac08\uae4c": 16897, "\ub290\ub080": 6629, "\uae09\uc131": 24635, "\uc9c4\uba74": 31233, "\uc694\uc591\uc6d0": 22943, "\uc124\uba85\uc11c": 20733, "\uc870\uc0ac": 3742, "\uc2e0\uc218": 29294, "\uc2e0\ud604": 21052, "\u5b97": 318, "\uc0bc\uac01\ud615": 22163, "\uac1c\uac01": 19053, "\uc26c\uc6b8": 26744, "\ud558\ud558\ud558": 14016, "\uc544\uc800\uc528": 6839, "\ub2eb": 813, "\uc120\uac70\uc778\ub2e8": 19752, "\ud0c4\ud575": 7224, "\ub9e4\ub2ec": 6018, "\uac00\uc785\uc790": 7409, "\ub618\ub618": 21098, "\ubd80\ub2e5": 28545, "\uaddc\uce59": 6094, "\uc774\ucf00\uc544": 25529, "\ubd80\ub4dc\ub7ec\uc6c0": 24845, "\ub3c4\uc11c\uad00": 5714, "\uc804\uac08": 28467, "\uc720\uc2e4": 21159, "PV": 26302, "\u318d\ubd80": 21800, "\ub098\ud0c0\ub09c": 6897, "\ucc38\ub2f4": 16976, "##\ubd09": 2126, "\ube0c\ub9ac\uc9c0": 20003, "\uc54c\uc544\ucc44": 26776, "\ub2ec\uc131": 4994, "\ub5a0\uc62c\ub790": 8234, "\ub300\ucc98": 6438, "1945": 12883, "\ub0b4\ub193": 4707, "\ub9cc\ub9ac\uc7a5\uc131": 31489, "\uacf5\uc815": 4646, "NBA": 21819, "\ubbf8\ub044\ub7fc": 27238, "\ucd95\uc801": 8460, "\uc131\ud488": 15156, "##\uad6c\ub9ac": 8333, "\ubc15\uc790": 17841, "##ev": 8751, "\uc0ac\ud68c\ud559": 13062, "\u6cbb": 416, "\uc6d0\uc7a5": 4782, "\uc2a4\ub178": 13249, "\ubc18\uc8fc": 21807, "\uc18c\uc9d1": 9960, "\ud1b0": 1797, "\uc5bc\ud54f": 16710, "##\uc911": 2284, "BO": 22275, "\uc5bc\ub978": 8718, "\uc870\ud615\ubb3c": 17227, "\uc5f0\uace0\uc9c0": 31124, "\ub4e4\uc73c\uba74\uc11c": 15944, "##\ud0dd\uc2dc": 22539, "\uc9c4\ud574": 11567, "1946": 16312, "\ubcc0\uacbd": 5131, "\uc774\ub904\uc9c4": 8815, "\ub098\uc124": 7153, "\uacb0\uc2ec": 6875, "\ubd90": 1178, "\ucea1\ud2f4": 23309, "\ub9c8\uccd0": 30896, "\ubd81\uadf9": 14373, "\ud504\ub808\ub4dc": 25484, "\uc5f0\uad6c\uc18c": 5158, "\uc77c\uc5b4\ub09c": 6657, "\ucd9c\ubc94\uc2dd": 26089, "\uae40\uc720": 13000, "##\uac1c\uad6c\ub9ac": 30275, "\ud669\uc131": 25926, "\uc6b4\ub3d9\ud68c": 29585, "\ube44\uccd0": 20407, "[unused432]": 31932, "\uc7a5\uc911": 18487, "\uc704\ud574\uc11c": 3961, "\ubd84\uaddc": 30297, "\ub098\ub978": 23884, "\uc131\ud3ed\ud589": 10648, "\uc6b0\uc704": 8385, "\uac00\ub85c\uc9c8\ub7ec": 19642, "\uadf8\uc81c\uc11c\uc57c": 21775, "\uc791\uc5c5": 4180, "Die": 26742, "\uad11\uc6b0\ubcd1": 19507, "\ub290\uaef4": 4975, "\ub9e4\uae30": 16899, "\ud569\ub2c8\ub2e4\ub9cc": 24510, "\uad00\uc6d0": 26239, "\uc624\ub514\uc624": 14584, "\uc790\uc120": 13895, "\uc9c0\ubc95": 8677, "\uc6d0\uccad": 22587, "\ucf54\ub9ac\uc544": 5551, "\uad00\uc545\uad6c": 27325, "\uc774\ub9ac\uc800\ub9ac": 12312, "\uae09\uc99d": 6757, "\uac70\ub480": 8734, "\ub300\ub2e8": 5403, "%": 9, "\uc539\ud788": 27381, "\uc790\uc544": 6147, "##\uac70\uc2a4": 18001, "\ub9ac\ub77c\ub294": 13945, "\ub014": 702, "##\u3164": 3243, "##\ub3d9\uac15": 8328, "\uac08\ub9dd": 14941, "\uc2e0\uc6a9": 4965, "\ubf51\ud600": 30545, "\uc77c\uac70": 18678, "LIG": 16492, "LPGA": 13022, "\uaca8\ub0e5": 8042, "\ud654\uc7a5": 4669, "\uace8\uc218": 22278, "\ud0dc\uc138": 12701, "\ubbf8\ub9dd": 28436, "\ub099\ub9c8": 18838, "\uc57c\uc678": 8296, "\ud50c\ub7ab": 6947, "sp": 12405, "##\ubc11": 3122, "\uc2e0\ube44\uc8fc\uc758": 26986, "\uc811\ud558": 9033, "\ubc14\uae65": 7536, "##\ud0f1": 3278, "\u00d7": 101, "\uc81c\ud2b8": 20398, "St": 6552, "\ud559\uc81c": 27099, "\ub2f7\uc0c8": 19839, "##\ubc84\uadf8": 9111, "[unused300]": 31800, "\ub315": 830, "\uacf5\uc801": 20454, "\ub0b4\ub824\ub193": 9572, "##\ub800": 2602, "219": 28909, "\u6548": 370, "\ubcfc\uae4c\uc694": 13982, "\ucd5c\uc815": 14703, "##\uc138\uc6e0": 21851, "\ud30c\uad34": 5802, "##\uc804\ub4f1": 31330, "\uc218\ub2e4": 10843, "ES": 12453, "##\ube5a": 3535, "\ud30c": 1826, "\ubd05": 1166, "##\uac13": 2575, "\ud569\ud55c": 24103, "\ud574\uce58": 10253, "\uc74c\uc6d0": 11594, "460": 23588, "\ud68c\uc2e0": 27943, "\ud604\uc138": 28639, "\uc2dd\uc790\uc7ac": 24431, "##\uc0c1\uc815": 21540, "\uba85\uc2dc": 8144, "\uc81c\ud504": 22873, "\ud074\ub9ac\ub2c9": 14653, "\ubcf5\uc218": 7156, "\uc790\uae30": 3780, "##\ub7f0": 2957, "##\uc6e8": 2620, "\uce74\uc6b4\ud130": 18000, "\uc778\uc885": 8784, "\uc2a4\ud504\ub808\uc774": 23978, "\uc774\ucf00": 11818, "\uc628\uc218": 24176, "\uc218\ubc95": 11277, "\ubbf8\ub974": 15406, "\uc7a5\ub09c": 6529, "##\uc3d9": 3364, "\uac1d\uad00": 6359, "\uace0\ub974": 7709, "##\ud504\ub85c": 17287, "q": 84, "\ud558\ub3c4": 9055, "\ub9c8\ubb34\ub9ac": 5029, "MO": 9445, "\uc544\ud504\ub9ac\uce74": 6815, "\uace0\uc601": 15896, "\uac10\uc0ac\uc6d0\uc7a5": 30408, "co": 7579, "\uc544\uc774\uc2a4\ud06c\ub9bc": 10390, "\uc2a4\ud2b8": 4870, "\uc0dd\uc2dd": 16419, "\ubc00\ud06c\ud2f0": 30359, "\ub2e4\uc9c0": 10642, "##\uc5ec\uaca8": 12522, "##\ub0a9": 2490, "[unused57]": 31557, "\ud30c\uae30": 17241, "\uc11c\ucc9c": 21927, "##\uae4c\uc694": 6301, "163": 16559, "\ub9c8\ub204\ub77c": 18294, "##itt": 15160, "##uc": 8142, "\uc720\uba85": 4455, "\ub0c9\uc7a5": 7771, "##\ub9c8\uc790": 6000, "\uac11\uc791\uc2a4\ub808": 25320, "ABC": 19415, "##\uc124": 2068, "##\uad0c": 3197, "\ud3ec\ub4dc": 11691, "\uc0ac\uc5ed": 15006, "\uc544\ud14c\ub124": 14199, "\uc635\ub2c8\ub2e4": 14586, "\u318d\uc911\u318d": 21592, "##\ub2ee": 2766, "\uc0b0\uae38": 17371, "\ubd10\uc57c": 5236, "\uc9c0\uc0c1": 5377, "\ubc30\uae09\uc0ac": 28157, "##\ub0c7": 3487, "\ub098\uc628": 4094, "\uadfc\ub370": 4224, "##\uc218\uc6d0": 13479, "\uae40\uc774": 28972, "\uae30\ubc00": 15125, "\ube44\ubc14\ub78c": 24287, "\ud074\ub808": 12906, "\uc655\uc2ed\ub9ac": 26529, "\ub530\ubd84": 28767, "\uac80\uc220": 28296, "\uc9c0\ud718\ubd80": 30598, "\ud4e8": 1876, "\uc62c\ub9ac": 4705, "\uadf8\ub7f4": 5014, "\ub3d9\uad6d\uc81c\uac15": 22240, "\u9593": 523, "\ud5a5\ud55c\ub2e4": 23984, "\ud5c8\ube44": 23054, "he": 14712, "\uc62c\ub824\ub193": 23397, "\ub3d9\uc720\ub7fd": 17783, "\ub4a4\ubc14": 18504, "\ud68c\uac00": 22705, "##\uc7ac\ud310": 21634, "\uc608\ubc29\ubc95": 29806, "124": 15590, "\ub0ae\ucdb0": 11966, "##\ub124\uc2a4\ucf54": 12878, "\ud3b8\ucc28": 19424, "\uc0c8\ub0b4\uae30": 22950, "##\ub2c8\ub2f9": 17203, "##\ud514": 2914, "\uc0c8\uaca8": 8775, "\uc5c5\uc790": 8927, "\uc6d0\uac70\ub9ac": 27720, "\ub300\ud45c": 3661, "\ub118\uc5b4\uc130": 10539, "\ub178\uace0": 19018, "\ub0b4\uac90": 24471, "\ud034": 1746, "##j": 2308, "\ud608\uc5f0": 22851, "\uc7a0\uc815": 10808, "\ud558\uc57c": 21385, "##\uc815\uc6d0": 22125, "\ub0b4\ub780": 19743, "\ud2b9\uc784": 24125, "\uc790\uc2e0\uac10": 7367, "\uc0dd\uc804": 12385, "\ubc18\ubc15": 7703, "\uc544\uc800": 6805, "\uc370\ubb3c": 31010, "\uc2e0\uc6a9\uc7a5": 20518, "\uc7a0\uc218": 10222, "\uc0c1\ubcf5": 30332, "##\uc2a5": 3339, "\uc2a4\ud2b8\ub85c\ud06c": 31007, "\ubd84\ub958": 5784, "\uc9c0\uc0b0": 27449, "\uc2e0\uc0c1\ud488": 18402, "\uae40\uc7ac\ucca0": 23215, "\ucf54\uc2a4\ud0c0": 24908, "\ub048": 704, "\uc2dc\ub2c8\uc5b4": 16450, "\ub8e8\uc18c": 22938, "58": 6264, "\uc790\uc591": 24421, "\ubf08": 1217, "\uc544\uc544": 9702, "##\uc744\uc9c0\ub3c4": 20660, "\ub5a0": 909, "##\uac38": 2989, "\ub2ec\uad70": 31250, "\uc778\ub354\uc2a4": 27226, "\uad00\ub9ac\uc6d0": 27271, "\uc885\uc601": 19754, "##\ubb38\ud559": 28963, "\uba58\ud0c8": 25396, "\ubd84\uc2dd": 14436, "\ubd80\uce5c": 10950, "##\uc9c0\ubb3c": 22255, "\uc5f0\uc77c": 11191, "\uac70\uc9d3\ub9d0": 6855, "\ub9de\ubb3c": 10344, "\ud648\uc988": 18180, "\ud589\uc790\ubd80": 26971, "##\uc5b4\uc9c4": 4847, "77": 6995, "\uc790\uc720\ud22c": 30833, "##\ud559\ub144": 18458, "##\ucc9c": 2337, "\uc9c0\uce68": 7661, "\u25b2": 148, "\ud3f4\ub354": 28809, "\uc9c0\uc6d0": 3691, "\ubd88\ub7ec\uc77c\uc73c\ud0a4": 13905, "9": 29, "\ud559\uc0dd": 3767, "\ud5e4\uc544\ub824": 25594, "\ube44\ud589": 5465, "\ubc15\uc774": 30007, "\uc790\ud615": 20965, "\ub0a0\ub9b4": 29527, "\uc635\ud2f0": 25199, "\uc18c\uc18d": 4546, "\ud6c4\uc6d0": 5758, "\uc5c5": 1414, "##\uc591\uc591": 29974, "\ubc15\uc8fc": 9941, "\uc2a4\uac00": 26192, "\ud559\uc790": 5705, "159": 13883, "\ub4e4\uc5b4\uc11c": 6333, "\ud56d\uc2dc": 28829, "\uc8c4\uc218": 17714, "\ud544\uc218": 5588, "##\ub9ac\uc5b4": 5859, "\ud718\ub9d0\ub9ac": 27063, "##\ub754": 3358, "\uc99d\uad8c\uac00": 22426, "\ubcbd\uba74": 15915, "\ubc18\uc131": 7309, "##\ub0b8": 2754, "\ubc15\uc0b4": 25552, "\uc774\uc2a4\ub77c\uc5d8": 7051, "\uc815\ub958\uc7a5": 14602, "\uac70\ub798\uc77c": 14964, "\uce90\ud53c\ud138": 17584, "\ucde8\ud588": 11887, "\uac00\ub828": 29662, "\ub9e4\uc9c1": 13362, "\ubcbc": 1153, "\uc608\uc57d": 6297, "\ubcf4\uc720\uc790": 18275, "OLED": 13851, "##\ud508": 2649, "\u25b3": 149, "\ubaa8\ud0dd\ub3d9": 28818, "\uc5f0\uc2b5": 5505, "\ubc14\ud2f0\uce78": 27209, "\ud398\uc774": 8393, "\ub86f\ub370": 4324, "##\ub801\uc774": 12546, "1998": 6813, "\uc628\ub204\ub9ac": 27055, "NA": 19552, "##\ub108\uc2a4": 11222, "\ub77d\ud560": 23230, "##\uc774\uc5b4": 4378, "##\uc7a5\uc774": 27345, "\uc774\uc911": 6807, "##\ud640": 2827, "##\ub9c8\ub514": 6295, "\ucc45\uc0c1": 7961, "\ucd08\uc810": 6392, "\uc0ac\uc790": 8264, "Korean": 25098, "\uc804\uc0ac": 8601, "\u3163": 198, "\uae30\uae30": 6004, "\u5b57": 314, "\uc5bd\ud600": 16756, "\uc790\uc720\ubbfc\uc8fc": 19871, "[unused349]": 31849, "\uacb0\uc0ac": 16884, "\ucd9c\ud310\uc0ac": 8563, "\uae08\uad11": 29498, "\u610f": 358, "\uba74\ud68c": 17212, "\ud798\uc37c": 30310, "\uc720\uc5d4\uad70": 30091, "\ud0a4\uc2a4": 9236, "\uc74c\ub780": 15034, "##\u318d\uc774": 28409, "\uacbd\ub9c8": 13513, "\ud280\ub2c8\uc9c0": 30610, "[unused200]": 31700, "133": 15381, "\uc2a4\ud1a0\uc5b4": 10300, "\uc655\ub9bd": 28490, "##\ud0c4": 2554, "\ub118\ubc84": 18021, "\ubcc0\ubcc4\ub825": 27107, "\uc0ac\ubc95": 6150, "\uc5d1\uc2a4\ucf54": 29951, "\uc62c\uaca8\uc6b8": 31011, "\ubc30\uace0": 10474, "\ucd5c\ub0a8": 29137, "\uc591\ud574": 10797, "\uc54c\ucc2c": 22486, "##\uc218\uc9c0": 13331, "\uc0ac\uaca9\uc7a5": 24861, "\ud3c4": 1858, "\ubb34\uad81\ubb34\uc9c4": 23460, "\ubcd1\uc0ac": 7009, "\uc798\ub77c": 8533, "\uc18d\ub825": 25496, "##\ud559\uc0dd": 5097, "\uacf5\ud56d": 4771, "\uac10\uc18c": 4520, "\ub9cc\ub9cc": 7956, "\ub2e4\uac00\uac08": 21770, "\ud2b9\uc0b0\ud488": 24403, "\uc704\ucd09": 14781, "##\ub3c4\ub85c": 6896, "##ry": 10659, "##\uc369": 3419, "##\uad11\uc5ed\uc2dc": 16955, "SA": 21707, "\ubc95\uc81c": 11553, "Rep": 18196, "To": 27878, "##eg": 8230, "\ub9c8\uc774\ud06c\ub85c": 25238, "##urn": 23513, "\uace8\uce6b": 25927, "126": 15660, "\uac08\ub9ac": 19772, "\uc0b0\uc9c0": 11562, "\uc131\uc2dc": 25694, "\uae09\uaca9\ud788": 9566, "\uac15\uad6c": 11313, "\uc88c\uc9c0\uc6b0\uc9c0": 22362, "\uc544\uad81": 31001, "\ub8e8\uc774": 11706, "\uc694\ub780": 13080, "\uc218\ub450": 23475, "##\uae4d": 3215, "\ubc84\uc2a4": 4942, "\uc2b9\uc6a9\ucc28": 8960, "\uac70\uc2dc": 13410, "\ub2f9\uae30": 9395, "\uc870\uc120\uc77c\ubcf4": 8515, "\uad6c\uc81c": 6688, "\uc790\ubc14": 29214, "\ub9ac\ud504\ud305": 29189, "\ud5f7\uac08\ub9ac": 25433, "\uac10\ub3c5": 3871, "\uad11\uc7a5": 6110, "##\u25cb\u25cb": 29719, "\uc800\ucd09": 30160, "\ub3c5\ub9bd\uc131": 14975, "\ubbf8\uc57c": 16256, "\ubbf8\uce7c": 20728, "\ubbfc\uc815": 9675, "\ud749\ub178": 27183, "\ubc29\uc0ac\uc131": 17263, "\uae43\ubc1c": 12683, "\uae40\uc9c0": 9223, "227": 27981, "\uce68\uc785": 10423, "\ubbf8\ud2f0": 30071, "\ud6e8\uc52c": 4716, "\ub04c": 706, "DS": 15476, "\ubb3c\uc99d": 30751, "\uc790\ud0dd": 13161, "\ubc95\uc6d0\uc7a5": 24661, "\ubd80\ub85d": 23611, "##\uc0c1\uac00": 16875, "\ubc40": 1135, "\uc720\ubb34": 13133, "\ube44\ubc94": 30544, "\ub4e4\uc5b4\uc62c\ub9ac": 25571, "\ub0a8\uacbc": 8392, "##\uae30\uc57c": 11163, "\ubb38\ub9e5": 22512, "\ud56d\uc0dd\uc81c": 17354, "\u318d\ud569": 30050, "\ucde8\uc784": 5826, "\ub2e4\ub098": 22326, "##\ubc14\ud034": 16850, "\ud560\uae4c\uc694": 11645, "\ubab0\uc544\uac00": 23894, "\ud53c\uc0b4": 23160, "##\u2501\u2501\u2501\u2501\u2501\u2501\u2501\u2501": 20376, "\uc790\uaca9": 5109, "\uc790\ud310": 18582, "\ud638\ub974": 9307, "\uc601\uc885": 14796, "\uc5b4\ud50c": 26672, "##\uc804\uc9c0": 13717, "\uc9c0\uacb9": 26671, "\uad6c\uc870\ubb3c": 13582, "\ubd10\ub77c": 13206, "\uc9c0\ubd80": 7854, "\ud604\ub300\ubaa8\ube44\uc2a4": 15517, "\ub85c\ubc84": 24446, "\uc2dc\ub0b4\ubc84\uc2a4": 13786, "\uc544\ud649": 9162, "\uc918\uc57c": 6175, "\uc3d8\uc544": 27818, "\uac74\ucd95": 4796, "\uc55e\uc138\uc6b0": 20290, "\ud3b4\ub0b4": 27496, "\uc81c\uc77c": 4920, "\uc784\uc815": 22361, "##ite": 15782, "\ub9ac\uc6b0": 13411, "\ubd84\ud64d": 16143, "\uc9c4\uc9dc": 4229, "\ub3cc\ub824\uc11c": 27760, "\uc37c": 1351, "\uc5c6\uc774": 3806, "\uc774\ub904\uc838": 15819, "\ubd80\ucc44": 5654, "\ud568\uc218": 18589, "\ubd88\ud589\ud788": 28113, "\ud0dd\uc9c0": 10789, "\uad00\ubb38": 12877, "\uc0ac\ud68c\ub2e8\uccb4": 11442, "\ub77c\ub514\uc624\uc2a4\ud0c0": 27637, "##\ub194": 3359, "\uc9c0\ub984\uae38": 17537, "##\ub4e3": 3066, "\uace0\ub1cc": 15203, "\uc1a1\ud658": 19005, "\uc9c0\ub9cc\uc740": 15027, "\uc720\uac10": 9663, "\uc2e0\uc57d": 10292, "Ro": 25145, "\ub808\uc774\ud06c": 22298, "1984": 11044, "\ud558\uc774\ub370\uac70": 19910, "\ud558\uc774\ud2b8": 16290, "\uc7ac\ubcf4": 21808, "\ud604\uc2dc": 30142, "Cent": 19653, "##\uff1c": 3017, "\ucf65": 1731, "\ube44\ud574": 4357, "##ark": 10488, "\uc561\uba74": 19987, "##\ud1b5\uc218": 18923, "\uc9c0\ubc30\ub825": 19071, "\uc870\ub9cc\uac04": 8311, "\ub178\ub8e8": 24093, "##\uc9ca": 3573, "\ubcf5\uc22d\uc544": 14654, "on": 9098, "##\ud0a4\uc9c0": 8176, "\uae30\ucd08": 4608, "RP": 26490, "[unused460]": 31960, "\uc624\uc218": 23839, "\ubaa8\ub2c8": 7168, "\uc815\uc810": 12067, "\uc2dc\uc678\ubc84\uc2a4": 24041, "\ucfe0": 1738, "\ucde8\uce68": 30806, "\uc774\ubb38": 16149, "\uae40\ud0dc\uc6b0": 31275, "\ube14\ub77c\ub514": 16332, "\u3011": 177, "##\ubcf4\uae30": 24374, "\uc0dd\uaca8\uc11c": 18107, "\ud558\ucc9c": 9254, "2013": 4910, "\ud64d\uc131\ud754": 26062, "TEST": 26967, "\uc0ac\ud1f4": 6336, "\uace1\ubb3c": 13182, "\ubc14\uafbc\ub2e4": 22645, "\uc5f4\uc545": 9644, "\ud734\uba38\ub2c8\uc998": 26894, "\uae30\ub150\uc2dd": 12286, "\ub3c4\ub974": 25410, "\uc2e0\uc785": 7225, "\uc2dd\uc74c\ub8cc": 26509, "\ubc18\uc810": 23904, "##\ucf00\uc778": 16162, "\uc5b4\uad6c": 30780, "\ubc8c\ud06c": 22580, "##\ud544\ud488": 18809, "\ud31d\ucf58": 26377, "\uc778\ud504\ub77c": 6087, "\ub300\ud615": 4477, "\ubd80\uacb0": 13310, "\ud54f": 1887, "\uc815\uc804": 11436, "\uc5ed\uc138": 11759, "\uc804\ud22c\ub825": 29725, "\ubabb\ud569\ub2c8\ub2e4": 20369, "Development": 26427, "\ud750\ubb47": 16798, "\uc544\ud30c": 4093, "\ubc15\ube59": 21452, "\ud3b8\ud788": 15867, "\ud558\uc18c\uc5f0": 14575, "\ubcf5\uc9c0": 4275, "IC": 6715, "\ucc38\uc870": 6998, "\ubb3b\uc5b4\ub098": 23210, "\ud5a5\uae30": 8118, "\uc0ac\ub77c\uc9c4\ub2e4": 16166, "\uc990\uac70\uc6c0": 7571, "\uadf8\ubb3c": 12895, "\uba54\uac00": 11556, "##\ud6a1": 2714, "\uc11c\uae30": 8907, "\ubd80\ub4dc\ub7ec\uc6cc": 21853, "\ub2e4\uc218": 5931, "\ub4e4\ub824\uc624": 14881, "\ud1b5\uc2e0\uc0ac": 9806, "\ub9c8\ud638": 28789, "\ubbf8\uc2e0": 19149, "\uc9c4\ub4dc\uae30": 24520, "\ud654\ub825": 11033, "\uc774\ucca0": 16807, "##\ube14": 2603, "\ud654\ub355": 28278, "\uc6b0\ub8e8\uacfc\uc774": 21515, "\uc544\ub984\ub2e4\uc6c0": 8020, "\ud2b9\uad8c": 10868, "\uc758\ub8b0\uc778": 22145, "\uc55e\ub4a4": 12488, "\uc0b4\uc544\ub0a0": 25047, "OS": 11506, "\uacfc\uc18c\ud3c9\uac00": 29455, "\uc5b4\ubc95": 17060, "\uc790\ub9cc": 19577, "\ub5a0\ubc00": 21864, "\ud53c\uc544\ub2c8\uc2a4\ud2b8": 15927, "\uc18c\uc790": 19284, "\uacbd\uba78": 17626, "\uc54c\uce20\ud558\uc774\uba38": 27657, "\uc6c0\uc9c1\uc784": 5504, "kW": 24350, "\uc587": 1400, "\uc694\uc77c": 20405, "\uc18c\uc7a5": 5366, "##\uc2a4\ud06c\ub9bc": 10389, "\uc2e0\ucd95": 9226, "\uc5b4\ub450\uc6cc": 18268, "\uc7a0\uaca8": 14944, "\uc804\uc131\uc2dc\ub300": 28555, "\ub809\uc11c\uc2a4": 20700, "\ub294\ub2e4\uba74": 6583, "\uc7ac\ud63c": 17563, "\ubd09\uc0ac": 4810, "\uc6e8\uc2ac\ub9ac": 31194, "##\ud654\ud559": 22563, "\ud310\uac00\ub984": 25126, "\ud30c\uc0ac": 28768, "\uae30\ub2e4\ub824": 8935, "\ubb34\uc2ec": 11852, "\uc804\ud559": 20434, "\ud559\uad50\uc7a5": 17816, "##\u2462": 3437, "\uc219\uc5ec": 16894, "\ud1f4\uc0c9": 23754, "440": 23387, "EV": 20851, "\ud83d\udc95": 1999, "\ucc45\uc7a5": 18176, "\uc218\uc9c1": 10566, "\uc544\uc218": 21077, "\uc575": 1395, "\uc624\uba54\uac00": 19295, "\uae54\ub9b0": 19409, "\uc1a1\uc815": 18493, "\ubca4\uce58": 9262, "\uc8fc\uac70": 5782, "##J": 2303, "\ub180\ub784": 15188, "\ubc1c\uc2e0": 21612, "##\ud380": 3039, "\uc9c4\ud558": 15670, "[unused464]": 31964, "\ub300\uc8fc\uc8fc": 9608, "##ts": 13077, "\uc870\ub3d9": 18978, "\ucd08\uc77c": 30768, "\ub2a5\uc219": 17022, "\ubc85\ucc28": 26712, "\uac70\uc808": 7236, "##\uc6cc\ud558": 7038, "##\uce58\uc6b0": 27610, "\ub9ac\ubc14\uc6b4\ub4dc": 14906, "\uc778\uc2ec": 18265, "\uace8\uba38\ub9ac": 25163, "##\uce75": 3351, "\uc2dc\ubc29": 30239, "\uc73c\uc154": 17644, "##\uad90": 2771, "\uace8\uaca9": 17611, "\ub098\ubb47": 11155, "\uc218\uc2ed\ub9cc": 19140, "\uc678\ubb34\uc131": 20894, "\ub300\ud559\uad50": 5461, "\uc99d\uc624": 11855, "\uc815\uac01": 27324, "##\uc81c\uc774": 15881, "\uadc0\ud658": 13915, "\uadfc\ub300": 5496, "##\uacb0\uc5f0": 22331, "\uc5d0\ub294": 7963, "\uac77\uc5b4": 20832, "##\ud2bf": 3493, "\uc77c\uc778": 24220, "\uc5ff": 1435, "##\u2192": 3131, "\ub9cc\uc131": 9305, "\ub9cc\ub4e0\ub2e4": 17011, "\uc720\ubbfc": 20458, "##\ubf50": 3592, "\uc8fc\ucda4": 12120, "\uc7c8": 1533, "\ud53c\uc0c1": 23528, "\uae40\uc21c": 23552, "\uc988": 1576, "\ub099\ub2f4": 29597, "\u570b": 293, "\u98df": 535, "\uc0c1\ud55c\uac00": 24142, "\ubd80\ud654": 26536, "\uc911\uac1c\uc5c5": 20317, "\ud654\uc57d": 19270, "\uc740\uc2e0": 24429, "Cons": 27518, "\ud074\ub9b0\ud134": 10305, "\ud398\ubbf8\ub2c8\uc998": 17345, "\ubabb\ud568": 21936, "\ub4dd\uc2e4": 20036, "##\ucbe4": 3353, "\ud31d": 1832, "\ub530\ub4ef": 28636, "207": 22084, "\uc774\uc655\uc774\uba74": 29610, "\uc544\ud558": 9493, "##are": 14452, "\ub3c4\uad50": 17348, "\uace0\uc9c8": 15823, "\uc678\ud30c": 28339, "##\ud2f8\ub80c": 23444, "\ud56d\uc0dd": 16517, "\uc800\ub7ec": 16855, "\uae4c\uc9c0": 3610, "##\ub80c\uc2a4": 19082, "##\uc22d\uc544": 13620, "\ub098\uc77c": 26189, "\uc81c\uc548\uc11c": 19755, "##\u00e9": 2080, "\uae40\uad11\uc11d": 23622, "\ud1f4\uc7a5": 15285, "\ub530\uac00\uc6b4": 28803, "\ub3c4\ub791": 29515, "\ub2e4\ud589\ud788": 8273, "\ubd81\uacbd": 14011, "\uacbd\ud488": 11539, "\ube48\uc57d": 20010, "##\uc2b9\uc6d0": 28003, "\ucf58\ud14c\uc2a4\ud2b8": 25033, "1916": 30313, "\uc62c\ub77c\ud0d4": 31090, "\ubca0\uc774\ube44": 9273, "\ud3f4\ud06c\uc2a4": 23968, "[unused335]": 31835, "\uc5c4": 1413, "##\uc5d0\uc5b4": 20446, "\uce90\ub098\ub2e4": 7066, "##\ucda9\uc81c": 20413, "##\uc2a4\ud14c\ub974\ub2f4": 30031, "##ective": 31223, "\ubc94\ud55c": 26630, "\uc138\uacc4\uad00": 12030, "\uc8fc\ubabd": 26787, "\uc1fc\ud33d": 30035, "\uac10\ucd98": 26811, "\ud654\uac00": 9562, "1976": 13252, "\uc5b4\ub5bb\uac8c": 3842, "\uc218\ubbf8": 29636, "\uac00\uc838\ub2e4\uc8fc": 18367, "\ucd08\ub3d9": 31320, "\ubb3c\ud68c": 29711, "\uac70\ubd80": 4966, "\uba54\uc138": 29290, "\uc911\ubc18": 7319, "\ub0b4\uc77c": 5420, "##\uc27c": 3157, "\uace8\ubab0": 25644, "ATM": 23372, "\uc8e0": 1563, "\uadc0\ucd94": 23943, "\uacbd\uce58": 17199, "\uce74\ud14c": 15586, "\ud558\ub0a8": 12440, "##\ubb34\uc0c8": 23060, "\uc6b4\uc804\uae30\uc0ac": 18127, "\uad11\uc8fc\ube44\uc5d4\ub0a0\ub808": 27872, "\uaca9\ud654": 19367, "\ubbf8\ub514\uc5b4": 5127, "\ubcf4\uace0\ud68c": 17024, "\ubc1f": 1125, "\ub6f0": 927, "\uc131\uc0b0": 14741, "\ubaa8\uc790\ub77c": 11686, "\ucd2c\uc601\uc7a5": 19828, "\ubbf8\ub2c8\uc2a4": 28896, "\uacb8": 588, "\ub2f9\uba74": 13155, "##\uaf2d\uc9c0": 24572, "##\uac00\uc2a4": 6731, "\uae30\uc058": 8921, "185": 12360, "\uc778\uba85": 11107, "\uac74\ub4dc": 17325, "##\uc6d0\uc2dd": 30425, "\ubcc0\ud0dc": 24557, "\ub2e8\uc5f0": 12072, "\ud55c\uad6d": 3629, "\uc8fc\uc6cc": 16036, "\ud130\ub4dd": 16000, "\uae40\uac74": 27892, "\uacb0\uc758\ubb38": 26350, "\uc2b9\ubb34": 30529, "\uacfc\uc18c": 20020, "\ubcbc\uc2ac": 11727, "##\ub514\uc5b4": 4234, "##\uaebc\ubc88\uc5d0": 8306, "\ud1a0": 1793, "\uc7a5\ub824\uae08": 20023, "\uac08\ub798": 13420, "##\uc218\uc544": 15766, "[unused61]": 31561, "\uac04\uc808\ud788": 15086, "\uc624\uc8fd": 16801, "##\ub835": 3147, "\ub124\uac70\ud2f0\ube0c": 21428, "##\uc800\ub798": 25833, "\ub9cf": 1040, "##ect": 11062, "##\uc270": 3444, "\ub0a0\ub838": 12807, "\ub2e4\uc2dc": 3690, "\ubaa8\uc158": 21408, "\uc870\uc120\uc5b4": 30858, "\uce74\uc2dc": 24375, "\ub354\ub77c\uad6c\uc694": 6267, "\uc2ac\ub9bd": 29442, "dis": 21147, "\ube0c\uc774": 16277, "\uc2e4\uccb4": 8005, "##ge": 8398, "\uad11\uad50": 13664, "\ubb34\ub108\uc9c4": 15562, "##\uc1c4": 2518, "\uacf5\ud3ec\uc99d": 31072, "\uc5f0\uadf9": 5909, "##IB": 29582, "\ud638\uad6c": 28259, "##iv": 7972, "\ub208\ubd80": 11570, "\uc6d0\ubbf8": 30223, "\uc591\uc870": 21145, "\u784f": 450, "\ud5c9": 1906, "\ubc95\ub839": 9964, "\uae40\uae30\ucd98": 20544, "##\ud31d": 3360, "##\ud83d\ude02": 2790, "\uc11c\ucabd": 9519, "\ubcf4\uc2b5": 10641, "\ubd07\ubb3c": 22930, "##anian": 24247, "\ube44\ubc15": 14291, "\uc789\uc5b4": 29427, "\uc120\ud55c": 18623, "\ub0a8\ubc29": 19119, "\ubc00\uac00\ub8e8": 13712, "##\ub808\uc624": 22691, "\uc704\uc5c4": 18257, "##\ubc84\ub824": 12432, "\ub9c8\uc0b0": 7958, "\u5225": 259, "\uc7a5\ubd80": 12659, "\uc120\uad6c": 16150, "\ub3c4\uc804\uc790": 26804, "\uac00\ub824\uc838": 30216, "##\ub7a9": 2657, "\uc5d0\uac8c": 3608, "\ub4e4\uc774\ubc1b": 25209, "\uc544\ub2cc\uac00": 5215, "[unused420]": 31920, "\ub124\uc774\ube44": 29545, "1937": 20533, "\ud074": 1752, "\uadc0\uac78\uc774": 24691, "\ubc27": 1128, "##\ub78f": 2641, "##\ube44\uc6a9": 20128, "Sp": 11480, "Bo": 25841, "##\ud601": 2551, "\ucc9c\uc9c4": 19628, "##food": 19885, "\uac10\uc790": 7860, "\uc18c\ud488": 12199, "\ubc95\uc0c1": 14637, "\ub9bf": 1034, "\ub07c\uccd0": 24862, "\ub2e8\ubc1c": 19690, "[unused10]": 31510, "\uc911\uace0": 8454, "\ubcf4\uad6d": 27586, "##\ubca0": 2472, "\ud65c\uc8fc\ub85c": 19336, "\uc790\uc774\uc5b8\uce20": 20562, "\uc624\ud574": 7218, "\ub8e8\uce74": 30129, "\uac1c\uc6d0": 12689, "\ub9de\uc544": 18556, "\uc6d0\ud615": 10001, "\ub4e4\uc5b4\ub9de": 20657, "\uc9c0\ud68c": 12403, "\ucea1": 1707, "\ud56b": 1895, "\ud3c9\ud654\uc0c1": 24642, "\uace0\uc885": 11418, "\ub4a4\ub530\ub974": 21715, "\uae54\ub824": 11495, "\ud53c\ub514": 16510, "\ub78f": 948, "\ud30c\ud504\ub9ac\uce74": 26441, "\ub9c8\uc774\ud074": 10364, "\ud569\uc2ec": 28746, "\ubcd1\uc6d0\uc7a5": 18439, "\uc5ed\ubaa8": 29605, "##\uad76": 2690, "\uc8c4\ucc45": 15700, "\ub204\uc6b4": 21973, "\ub4f1\ub77d": 19810, "\ud398\ud37c": 27663, "\ube57\ubb3c": 15421, "\u7ae0": 460, "\uc5d0\uc774\uc804": 17070, "##\uc0ac\ub78c": 11336, "\uc0dd\uc0b0\ud488": 29923, "\ud504\ub860": 25518, "\uc548\ubb34\uac00": 29457, "\uc5b4\ucc28\ud53c": 8489, "\uc2dc\uae08\uce58": 21217, "\uc911\uc810": 7612, "\uc544\ub798\uce35": 23522, "\uadf8\ub7f4\uc218\ub85d": 27023, "\uad50\uc721": 3664, "\uc790\ub294": 5105, "\uae08\ubc29": 7401, "\ubc15\uc218": 7479, "\ubc14\ub098\ub098": 12969, "\uad00\uc911\uc11d": 24359, "\uc801\ud569": 6273, "\uc0c1\uc790": 7777, "\ud63c\uc120": 19063, "\ub2e4\uccd0": 24854, "\uc900\ud638": 30075, "\ubbf8\ub300": 26849, "##\ud241": 2725, "\ubc30\uc81c": 6337, "\ub2c8": 801, "\uc5b4\ub824\uc6cc\uc9c4\ub2e4": 29985, "\uc2e0\uacbd\uc9c8": 20341, "\ubc29\uc804": 28905, "\ud68c\uacc4": 6223, "\ud63c\ub3d9": 17315, "\ubd84\ub2f4\uae08": 21818, "##\uc5b4\uc2a4": 25286, "[unused218]": 31718, "\ub178\ub978\uc790": 26653, "\ub85c\ub77c": 16334, "##\ub2e8": 2286, "\ubc1c\uc0c1": 9938, "\ud2c0\uc5b4": 16814, "\ub4e4\uc5b4\uc62c": 9994, "\uc2ec\ubd80": 14216, "\uc21c\uac04": 4236, "113": 14468, "\u318d\uc778": 18929, "\uc99d\uac10": 27004, "\uc5bc\ub5a8": 25696, "[unused122]": 31622, "\uc9c0\ubc29\ucc44": 26044, "\ud68c\uc6d0": 4789, "\uc5ec\ud589\uc790": 13753, "\ud6c4\uad81": 25363, "\uc6cc\ud06c": 7809, "\uc77c\ub840": 21720, "\uc8fc\ud0dd": 4031, "\uc644\uacb0": 19396, "\ub2c8\uae4c\uc694": 8491, "\ubfb0": 1222, "\uc544\ucc28": 28097, "\ubb34\uc12d": 8707, "\uac10\ud0c4\uc0ac": 27730, "\ubd99\ubc15\uc774": 31020, "\uc791\uc5c5\uc2e4": 19121, "\uc2b9\uc778": 5887, "\uc778\uc2a4": 27053, "\ub85c\uc584": 23006, "\uc77c\ucc0d\uc774": 12168, "\ub178\ud558\uc6b0": 7600, "\ub2f9\uc218": 30863, "\uaca9\uc559": 28988, "\uc9d1\uc548\uc77c": 19607, "94": 8074, "\uc720\ub2db": 24336, "\ubcf4": 1160, "\ub86f\ub370\uce74\ub4dc": 26097, "\uace4\uc695": 27255, "\uc120\uace1": 27708, "\uc644\uc81c\ud488": 22091, "\u5168": 249, "##\ub3c5\ubd80": 27803, "\ub2f5\uc548": 19130, "##ame": 7200, "\ub418\uc0b4\uc544\ub098": 23976, "##\ubd80\uc778\uacfc": 17715, "\uc870\ub07c": 23196, "\uacbd\uac01\uc2ec": 23056, "\ucc30\ub5a1": 22939, "\uac16\ucdc4": 9706, "\uacb0\uad6d": 3983, "\ubc84\ubc84\ub9ac": 31482, "\ub204\ub77d": 15648, "\uaca8\ub97c": 22581, "\ubbf8\uc77c": 24953, "\ucee4\uc9c4\ub2e4": 16163, "\ucc30\ub098": 19846, "##\ud074\ub77c": 24818, "##\ucf00\uc774\ud06c": 22909, "\ud3c8": 1859, "\ubf55": 1221, "\uc544\uc218\ub77c": 24043, "\ub0a1": 722, "\uc5ed\uc790": 26244, "\ubbfc\uc6d0\uc778": 21871, "\ubcfc\ud2f0\ubaa8\uc5b4": 26820, "##\ud39c": 2945, "\uba54\uc2dc\uc9c0": 5305, "\ubcc0\ud658": 15070, "\uc740": 1497, "##\uafc7": 3490, "\uc0b4\uc544\ub09c": 26937, "\uae40\ubc94": 16468, "\uadf8\uac78": 5406, "\uc15c": 1278, "\ud799\ud569": 13892, "\ucda9\uc804": 7481, "\ubaa8\ub984": 23442, "not": 18636, "\ubc84\ub987": 12472, "\ube60\ub728\ub9ac": 21362, "\ub0a0\ub6f0": 23615, "##\ub81b": 3081, "[unused76]": 31576, "\uc5f0\uc11d\ud68c\uc758": 21525, "##\ubcf4\ub0b4": 14179, "##\uc9c8\uc11c": 20300, "\uacf6\uac10": 24795, "\ub3cc\uc544\uc130": 13956, "\ud611\ub3d9": 8030, "\uc0dd\uccb4": 14939, "\ube0c\ub93c": 25066, "##\uad50": 2120, "##\uc2dd\uac04": 9247, "\ud654\uc5c4": 25509, "\uce5c\ud654": 10455, "\ubb34\uc8fc\ud0dd": 18488, "\ud2b8\ub7ec\ube14": 15343, "##\ud589\uc815": 21002, "\uc5ec\ub7ec": 3789, "\ud544\ud130": 12047, "\uc720\ucc29": 15974, "\uc790\uac00": 17296, "\uacc4\uace1": 8858, "\uadfc\uad50": 21858, "\uba74\uc9c1": 27524, "\uc5b8\uc81c\ub098": 5641, "\ud769\uc5b4\uc9c4": 26637, "##\u3160": 2095, "\ucad3\uc544\ub2e4\ub2c8": 30492, "\uc62c\ub77c\uc654": 12420, "\ub179\ud654": 11739, "\ucea0\ud504": 5774, "\uc5f0\uc7a5\uc120": 16247, "##\ub54c\ub85c": 13328, "korea": 29099, "\uc778\ubbfc\uad70": 18507, "\u611b": 359, "\ub3cc": 852, "\ubc18\ub3d9": 19630, "##\ub17c": 2473, "\ud654\ubcf4": 10879, "\uc120\uc870": 10719, "\uba54\ucee4\ub2c8\uc998": 15147, "\uc544\uce68\ubc25": 30949, "\ud64d\ucc28": 24390, "\ub18d\ubc95": 27716, "\uc591\ubc18": 9527, "\uc8fc\uc220": 22015, "##\ud604\uc8fc": 30015, "\ub3cc\uc544\uac00": 4881, "##\uae30\ub150": 18296, "Smart": 30775, "\uc0c1\ud68c": 13576, "\uace8\uce58": 19031, "\uc2e4\ud328": 4717, "##\uc410": 3344, "\ube44\ub9cc": 13398, "##\ub9d9": 3460, "MB": 7669, "\uc704": 1485, "\ub4dc\ub9bc": 8079, "\uac4d": 566, "\ud06c\ub098": 27025, "\uad6c\ud615": 14667, "\ud50c": 1880, "##ember": 28831, "\uc678\uc0c1": 11658, "\ub298\uc5b4\ub098": 5351, "\ud30c\ub098": 15566, "##\uc9c0\uc624": 13758, "\ubc84\ub9bd\ub2c8\ub2e4": 30915, "\uc804\uad11\ud310": 21218, "\ube0c\ub77c\uc6b4\uad00": 28815, "##\ubc31\ud654\uc810": 14986, "##\ubd88\ub9ac": 14626, "\ubc14\ub2f7\uc18d": 27200, "\ub300\ud68c": 3931, "\uc218\uc8fc": 6599, "\ub808\ubbf8": 17752, "\uc678\ud615": 13190, "\ub300\ud1b5\ub839\ub839": 21990, "\ub3d9\uad74": 9972, "\uc6b0\uc120": 4174, "\ubc84\ub9b0": 5715, "\uc720\ubaa8\ucc28": 20109, "\uc5f0\uc5b4": 11346, "\uae30\ud68c": 4118, "##\uc560\ud50c": 24960, "\uac15\uc131": 13272, "\uc815\uc720": 9530, "\ubd84\uba85": 4288, "\uc57c\ud6c4": 22533, "\uc2dc\ub984": 21212, "\ub298\uc5b4\uc9c4": 26858, "\uac10\uc0ac": 4143, "\ub4a4\ub530\ub77c": 16341, "\ubab8\uc2f8\uc6c0": 18925, "\uc790\ub9ac": 3798, "\ubb47": 1095, "\ubc30\ub7f4": 11274, "\ub808": 974, "1300": 13849, "108": 12309, "\ucc38\uc0c8": 24633, "\uac00\uc774": 18608, "\uc8fd\uc600": 13644, "\ud3b8\uc548": 5984, "\uc6ec\ub9cc": 10952, "2400": 20060, "\uc774\uae30": 5576, "\ud0c0\ub839": 23202, "\ub188": 770, "\uc2e0\ub370\ub810\ub77c": 22488, "\ud65c\ub825": 8879, "\ub0b4\ubbf8": 25855, "\uc2dc\uc778": 5362, "\ud0dc\ud6c4": 24721, "##\ub300\ud3ec": 29117, "##\ud2bc": 2677, "\ub808\ucf54\ub4dc": 20683, "\uadf8\ub7fd": 30100, "\ubc29\uad11": 23353, "\uc870\uc120\uc655": 23812, "##\uae43": 3148, "\ub3c4\uc5b4": 15827, "\uc704\ub3c4": 30463, "\uc5f0\ubd09": 6916, "\uc790\uace0": 5883, "\uc5ec\ub9b0": 29383, "Cont": 24708, "\uc2a4\ub9b4\ub7ec": 19445, "\ubcf8\ub4dc": 21888, "\uacb0\ubd80": 19395, "\uac01\ub9c9": 22629, "\uc0ac\ud22c\ub9ac": 16804, "\uae40\uc885\ud544": 28145, "\ud790\uc2a4": 27220, "\uc18c\ub780": 14163, "\uafc8\ud2c0\uac70\ub9ac": 27641, "\ub0b4\uc900": 17570, "\uafb8\ubc00": 29965, "\ub9cc\ubc18": 29489, "\uc870\ub098": 28609, "\ubaa9\ud3ec": 9312, "\u50b3": 242, "\ud504\ub80c\uce58": 20259, "\uc9c8\uc11c": 5744, "\ubd80\ubd80": 4933, "Univers": 13198, "\uc8fc\uc2a4": 12228, "\uc2dc\ud55c": 11880, "\uc6b8\ub9bc": 16126, "\ub204\uad70": 5280, "\ub3d9\uba85": 14807, "\ubabb\ub09c": 20622, "##\uceec\ub808\uc774\ud130": 30741, "\uc18c\uc7a5\ud488": 30371, "\uc811\uc810": 17773, "\uc0e4\ub97c": 26747, "\uac10\uc815\ud3c9\uac00": 27125, "##\ubc88\uc5d0": 7560, "##\uc871": 2488, "##\ub77c\uc774\uc5b8\uc2a4": 30413, "\ub9e4\uaca8": 23703, "[unused344]": 31844, "\ud55c\uacb0": 8869, "\u4e0a": 216, "\uc131\ud3ed": 7460, "\uc120\ub840": 23348, "\uc0c8\ub85c\uc6b4": 3824, "##\uc2a4\ud2b8": 3791, "\uad6c\uc18d": 4908, "\ud574\uc7a5": 19152, "\ud654\uc815": 27859, "\uc18c\ud1b5": 4740, "\uc131\uacf5": 3920, "\uc885\uc8fc": 21019, "[unused387]": 31887, "\uba39\uc774": 8002, "\uc190\ub300": 26129, "\uc678\uc138": 23906, "\ubcf4\ub8e8": 23326, "##\uc870\ub9bc": 18015, "##\ubb8c": 2726, "##\ud600\uc11c": 25955, "##\ub77c\uc774": 4893, "\uae68": 662, "\ucd1d\ub7c9": 19083, "\uae7b\uc78e": 21260, "\u2800": 167, "\uacf5\ud1b5\uc810": 10414, "\uc558": 1386, "\uad50\ub7c9": 16237, "##ana": 31222, "\uac11\uc791": 8748, "\uc18c\uae09": 20358, "\uadc0\ucd0c": 22809, "\uce78": 1699, "\ub9c9\ub860": 15876, "\uacb0\ubcc4": 17912, "##\uc0ac\ub791": 15581, "\uc0ac\ub9ac": 11955, "\uc7ac\uc988": 11095, "##\ub458\uae30": 16715, "\uae40\uc591": 18980, "\uc601\ube48": 29029, "\uc591\ud3c9\uad70": 24943, "##\ud0dc\ud3c9": 17569, "\uae30\ub2e4\ub838": 8658, "##\uc29b": 3452, "\uc5f0\uc0ac": 21244, "##\ud750": 2487, "\ucf8c\uc801": 10208, "\uc9c8\uac10": 20991, "##\uae4e": 3510, "##\uc720": 2298, "\ub3d9\ub798": 15742, "\uc2a5": 1317, "\ub9c8\ub974": 5906, "##\uc57c": 2275, "\ud639\ud3c9": 26253, "##\ud2f0\uc544": 13238, "STX": 11052, "\ubb34\uc8fc\ud0dd\uc790": 30138, "##\ub974\uae30": 11799, "\uc1a1\uc2dc\uc5f4": 29273, "##\ubcf5": 2091, "\uc5c4\ub9c8": 4122, "\ube48": 1189, "\uc5ec\ub2e8": 20856, "\ucc45\uc784\uc9c0": 9136, "\ub4dc\ub113": 25020, "\ud1a8": 1796, "\uc2a4\ud0c0": 3787, "\uad6c\uc11d\uad6c\uc11d": 14439, "\uc18c\ube44\uc790": 4297, "\ub140\uc11d": 6144, "\ub3cc\ubc1c": 17248, "\uc5bc\ub9c8": 3943, "\uc313\uc558": 17037, "##\ub780\ud2b8": 14359, "\uac78\ub9b0\ub2e4": 12682, "\ub9e4\ub144": 5088, "\ud0c8\ucde8": 18043, "\uad6c\ub840": 21129, "\ub85c\uc0ac": 30586, "\uad6d\uac00\uc8fc\uc758": 30822, "##\uac01": 2215, "\ub51c\ub7ec": 16288, "\ud5e4\ub974": 15631, "\uc0ac\uace0\ubc29\uc2dd": 14395, "\uac08\ub790": 26435, "##\uc2dc\ub300": 13169, "\ubcf4\ud638\uad6c\uc5ed": 20280, "\ub9e5": 1051, "\uc060": 1230, "##\ub9bc": 2323, "\uac74\uc870\uae30": 26522, "\uc5b4\ub518": 9278, "##\ubc14": 2100, "\uc591\uac15": 25636, "\uc0c1\ud669": 3706, "\ubb38\ud5cc": 10788, "\ubaa8\uc790\uc774\ud06c": 28405, "\uae30\ub2e4\ub9ac": 5037, "\uc131\uacfc": 4422, "\ud1b1": 1798, "##\ub8e8\uc2a4": 15030, "\uc81c\uc791\uc790": 15998, "\ubc29\ud328": 16275, "\ud050": 1748, "\uc4f0\uc774": 8026, "\uc9c0\uc801\ub3c4": 28107, "\uc57c\ud06c": 27348, "##\ud604": 2056, "\ub2e4\uc774\uc5b4\ud130": 13538, "\ub514\uc988": 13926, "##ington": 26941, "##\ud2f0\ub128\ud0c8": 28004, "##\ud1f4\uc9c1": 15150, "[unused4]": 31504, "\ucc9c\uba85": 15689, "\ud30c\ucd9c\uc18c": 18077, "\uacc4\uc57d\uc9c1": 15900, "170": 10833, "del": 25389, "ph": 17472, "\uc138\uc6e0": 7068, "\ub545\ubcfc": 19074, "\ud1a0\uc9c0": 5250, "\uc911\uc18c\uae30\uc5c5": 4722, "\uc11c\uc548": 29082, "\ucd08\uacfc": 6706, "##\ub7ec\uc6b4": 5464, "##\uc5f0\ud788": 6467, "SG": 30146, "\ub05d\ub098": 5510, "##\u25bc": 2276, "\uae08\ud638\uc0b0\uc5c5": 27851, "\uacf5\ubbfc": 19379, "##\uc120": 2020, "##\uc2ed\ub2c8\uae4c": 14042, "\uc9c4\ucde8": 27207, "\uaf43\ub2e4\ubc1c": 22415, "66": 6448, "\uc544\ud514": 7945, "\uc911\uc0dd": 16702, "##\uad6c\ub098": 6074, "\uc6b8\ud504": 22478, "\ubf40\ubf40": 24249, "\uc5d0\ubca0": 24970, "\ud168": 1791, "175": 15048, "\ubaa8\uc790": 6072, "\ucd5c\ud76c\uc12d": 26562, "[unused177]": 31677, "\uc870\uc120\uc870": 28403, "\ub3c5\ucc28": 26867, "\uc0c1\uc601\uad00": 23111, "\uc2e0\uc548": 14946, "\ubc30\uc2ec\uc6d0": 20236, "\ub8e8\ud2b8": 14192, "\u8a69": 495, "\uc13c\ud2b8": 11515, "##\ub3d9\ubb34": 30056, "\ubb34\uc11c": 6338, "\ub04a\uc784\uc5c6\uc774": 6542, "Poli": 23310, "\ubc29\uce58": 8095, "\uad70\ubcf5": 18531, "\uc720\uc758": 10407, "\uad81\ub9ac": 17647, "##\ub529\ud06c": 19098, "\uc790\ud0dc": 18991, "\uc9c0\uc640": 30390, "##\ub2c8\uc5b4": 6713, "\uc5b4\ub834": 21398, "\uc624\ub514\uc158": 11820, "\ud638\uc7ac": 12087, "\uc9c4\uc9c0": 7060, "##acy": 23753, "\ub178\ud6c4": 6929, "##\ud6fc": 2480, "\uc5f0\ub2e8": 22594, "\uce5c\uc9c0": 20352, "\uae68\uc54c": 28000, "\uc9c0\ub77c": 20627, "\uc911\uc559\uc9c0": 19460, "\ubf40\ub85c\ub85c": 27088, "\uacf5\uba85": 13904, "1915": 28664, "##\uc9c0\uc0ac": 6721, "\ubab0\ub824\ub4e4": 13868, "\ud544\ub984": 9657, "\ud130\uc9c0": 8771, "\uace4\ucda9": 11953, "\uc2a4\ud14c\uc778": 19557, "\ub9e4\uc8fc": 7507, "##\ud615\uc81c": 26141, "\u592b": 309, "\uc123": 1262, "\ud55c\uc911": 12611, "\uc0dd\uac15": 14479, "\ube44\uc544\ub0e5": 30671, "\uc218\ud559\uc790": 23229, "\ud1f4\uacc4": 17516, "\uc774\ubd81": 21123, "\ub178\uc5ed": 26030, "\ub125": 753, "\uace0\ubaa8": 13146, "##\uba54\uc774\uc158": 8739, "\uc73c\ub77c\uace0": 10889, "\uc99d\uc5ec": 9751, "\ud788\ub4e0": 24190, "\uac00\uc815": 4369, "\ubaa8\ud68c\uc0ac": 31371, "\uad6c\ub9ac\uc2dc": 30474, "\uc5f0\uae08\uc220": 29877, "\ud638\uc870": 12280, "\ubd80\ub4dd\uc774": 20008, "\uc57d\uc7ac": 21199, "\ub300\ub9cc": 6527, "\uc610\ub85c": 28804, "\ubd80\uac10": 26942, "\ud55c\uad6d\uc2dd": 26416, "\ub204\uc9c4": 21432, "[": 63, "##\ubbf8\uc548": 14650, "\uc608\ubc29": 5005, "\uc2e4\uc6a9\uc8fc\uc758": 30366, "\uc9c0\uc5ed\uad6c": 9340, "\ud5a5\ud588": 9991, "\ub458\ub7ec\ubd24": 29260, "\ubbf8\ubd84": 10747, "\uc790\uad34": 27840, "\uc131\ucd94": 12155, "\ud1b5\ud558": 5608, "\uc138\ud0c1": 7842, "\ub04c\ub9ac": 23652, "\uc9d3\ub20c": 25121, "Pol": 14355, "##\ub354\ub4dc": 21789, "##\u318d\u318d": 19290, "##\ub0c9\uc7a5\uace0": 27775, "\uc9c0\ud06c": 18387, "\ubb34\uc9c4": 14249, "\ub9c8\ud3ec\uad6c": 15680, "\uc2dc\uacc4": 6974, "109": 13880, "##\uc138\uae30": 14223, "\uc218\uc2dd": 13622, "\uc6d0\uc790\ub85c": 18944, "##\uc774\ud06c": 4581, "\uc88c\uc6b0": 6709, "\uc815\uac15": 22653, "##\ud14c": 2201, "\uc77c\ub828": 10219, "\uc18c\ubb38\ub09c": 20760, "\ub2f4\ud654": 12894, "##\ubbf8\ub974": 19064, "\ub0a8\ubd81\ud55c": 11943, "\uc608\uc804": 5378, "\ub9dd\uc0c1": 19580, "\ub370\ub824\uc628": 29760, "\ub4a4\uc9c4": 16994, "\uc2dc\uc2b9": 20497, "\uc785\uc0c1": 14566, "\uc785\ub300": 12119, "\uacf5\uc2dc": 7380, "\ud0ac\ub7ec": 19073, "##\ub12c": 2829, "220": 13444, "\ub9cc\uc77c": 6412, "\uce90\uc11c": 25106, "\ub098\uc2a4\ub2e5": 27456, "\uc804\ub3c4": 9532, "\u4e16": 219, "\uc190\ud574\ubc30\uc0c1": 19961, "\ucc3d\uc2dc": 19989, "\uc2e4\uc874": 11514, "\uc77c": 1507, "\uc131\ud3ed\ub825": 10251, "\ubc1b\uc544\ub4e4\uc778\ub2e4": 20684, "\ube44\ud575\ud654": 8573, "##\ud1a0\ub9ac": 9918, "\uc5ed\ud559": 12357, "##\ube91": 3502, "\uc598\uae34": 18264, "Company": 31491, "\ubc30\uc0c1": 7053, "\uc784\ub300": 5010, "\uc218\uc644": 23154, "\uc18c\uc591": 13600, "\ubcc0\ubcc0": 23576, "##ar": 4092, "\uc57c\uae30": 10013, "\uc544\ud2b8\ud640": 21337, "##\uc800\uac83": 13373, "\uc694\ucda9": 24675, "\uc804\ub450\ud658": 12493, "##\uac9f": 2760, "\uace8\ud504\uc7a5": 7802, "\ub0b4\ubd80": 4492, "\ub098\uc694": 5444, "\uce5c\ud658\uacbd": 5572, "\u7232": 425, "\ub370\ub824\ub2e4": 16284, "##lex": 22532, "##\ubaa8\uc790": 26307, "\uc8fd": 1565, "##\uc2b4": 2990, "\ub9fa": 1057, "\ucc9c\ubb38\ud559": 15677, "\ud574\uc918": 23942, "##\ubb34\uc131": 9047, "\uc0ac\ub098\uc774": 10621, "\ud0c0\ub974\ud2b8": 26738, "\ub450\uaebc\uc6b4": 14649, "\ub2e8\uae30\uac04": 12451, "\uc591\ud604": 15905, "\u5e2b": 337, "\ud0c0\uc545": 28687, "\ud314\ucc0c": 21258, "##\ud14d": 2229, "\ub2f4\ud310": 27181, "\ud30c\uc5c5": 6748, "\ud1b5\uc2e0\ube44": 21360, "\ubc14\ube44\ud050": 26105, "\ubc09": 1112, "\uc0c1\ub300": 3904, "\ud5a5\uc751": 26763, "\ubcc0\uc778": 17294, "\uc758\uc678": 8797, "118": 15206, "\uad00\uc138\uccad": 19749, "\uae30\uaecf\ud574\uc57c": 23696, "\ub2f9\uc0ac": 11709, "\uafb8\ub7ec\ubbf8": 25341, "##\ud575\ud654": 8567, "\uc5ed\ubc1c\uc0c1": 31069, "\uc5b8\ub355": 8756, "##\uc2dc\uc2a4\ud2b8": 15341, "##\ub2e4\ub974": 14367, "\uc624\ub978\uc190": 13817, "\uac00\uc8fc": 28018, "\uacf5\uc8fc": 6717, "\ub300\uc7a5\uad70": 29343, "##\uaec4": 3061, "\uac00\uaca9\ub300": 18452, "\ub9db\uc2a4\ud0c0": 8725, "\uc218\uac1c": 18892, "\uad50\uad00": 27126, "##\ub69d": 3124, "\uacbd\uc758\uc120": 27382, "\uc7ac\uc870": 20879, "\uc62c\ubc14\ub974": 16541, "\uc3df\uc544\uc838": 11074, "\uc2a4\ud380\uc9c0": 31141, "\ud3ec\ud1a0": 11255, "##\uc2f1": 2942, "\ucc2c\ubc14\ub78c": 19496, "\uc9c0\uce5c": 11207, "##\ub3d9\ub825": 10697, "##\ud5e8": 2727, "\ud310\uc815": 7629, "\ubed4\ud55c": 18607, "\uc0b0\ucc45\ub85c": 16055, "\ub77c\uc774\ud130": 23789, "\uacf5\uc57d": 5374, "\uc804\uc6d4\uc138": 27149, "\ubed8": 1213, "\ubc14\ubcf4": 7902,
[...]
